<pad>	0
<unk>	0
<s>	0
</s>	0
,	-2.76348
▁the	-3.09753
.	-3.34575
▁and	-3.71368
▁of	-3.7883
▁to	-3.90655
s	-3.93391
▁a	-4.13718
▁in	-4.37961
▁I	-4.58468
▁that	-4.66498
▁he	-4.67388
▁was	-4.75112
▁his	-4.77057
;	-4.85656
▁	-5.02648
▁it	-5.03672
▁is	-5.03989
▁with	-5.05731
▁you	-5.12359
▁had	-5.15807
▁not	-5.21317
▁as	-5.31008
▁for	-5.31679
ed	-5.36109
▁on	-5.37699
▁at	-5.39535
▁be	-5.42638
ing	-5.43181
?	-5.44898
▁him	-5.45706
▁her	-5.47421
▁which	-5.51245
▁The	-5.54803
!	-5.563
▁have	-5.57165
▁said	-5.64154
▁but	-5.6505
▁all	-5.66569
d	-5.67452
▁by	-5.71158
▁my	-5.72904
▁from	-5.74581
▁this	-5.76622
▁me	-5.77799
▁she	-5.88532
▁one	-5.91806
▁are	-5.94032
▁so	-5.94254
▁they	-5.9453
▁were	-5.972
▁who	-5.99367
ly	-6.01972
:	-6.0443
▁will	-6.0629
▁or	-6.09077
▁an	-6.12889
▁He	-6.14574
▁we	-6.19139
▁them	-6.19565
▁their	-6.21691
▁there	-6.23149
<	-6.25894
>	-6.25894
▁no	-6.263
▁man	-6.27875
▁And	-6.28521
▁been	-6.29798
▁what	-6.31805
▁would	-6.32276
▁when	-6.32473
▁out	-6.42369
▁your	-6.42687
▁do	-6.43418
▁up	-6.45453
▁more	-6.49204
▁if	-6.50805
e	-6.52383
▁into	-6.53244
▁has	-6.57865
▁then	-6.58399
▁But	-6.60374
y	-6.61429
▁It	-6.65026
▁could	-6.65263
▁now	-6.65593
bos	-6.66117
t	-6.67953
▁like	-6.69905
▁only	-6.70288
▁did	-6.70673
▁some	-6.71658
▁very	-6.7494
▁time	-6.76057
er	-6.76382
▁other	-6.81515
▁about	-6.82896
▁see	-6.85007
▁A	-6.85697
▁than	-6.86002
▁know	-6.88737
▁himself	-6.90003
▁must	-6.90863
▁over	-6.91053
▁us	-6.91833
n	-6.92016
r	-6.93183
c	-6.93314
▁two	-6.93683
▁our	-6.93894
p	-6.94155
▁should	-6.96557
▁any	-6.97031
a	-6.97114
▁little	-6.9886
▁can	-6.98889
▁before	-6.99045
▁am	-6.99149
▁may	-6.99893
▁down	-7.01153
▁good	-7.03031
▁old	-7.03226
m	-7.03772
▁first	-7.04998
es	-7.06181
▁upon	-7.07135
▁these	-7.0768
▁made	-7.08122
▁men	-7.09358
▁again	-7.102
▁such	-7.10856
▁say	-7.10953
▁shall	-7.11672
▁In	-7.12047
▁You	-7.12306
▁day	-7.128
▁go	-7.13456
▁come	-7.15193
▁went	-7.15698
▁came	-7.15969
▁way	-7.16366
▁What	-7.16504
▁eyes	-7.17522
▁its	-7.18372
▁own	-7.18987
▁where	-7.20155
▁great	-7.21068
▁hand	-7.21251
▁after	-7.21352
▁Then	-7.2259
▁still	-7.23205
▁thought	-7.23354
▁much	-7.24128
▁well	-7.24914
▁long	-7.25205
▁M	-7.25356
▁back	-7.27349
▁those	-7.27404
▁without	-7.27949
▁She	-7.28061
▁same	-7.28326
▁here	-7.28792
▁how	-7.2888
▁head	-7.29868
▁de	-7.29872
▁This	-7.31987
▁through	-7.33319
▁away	-7.33524
eos	-7.34568
▁just	-7.35156
al	-7.3536
▁life	-7.35876
▁house	-7.37621
▁There	-7.37637
▁never	-7.40138
▁even	-7.40489
▁think	-7.41423
▁last	-7.41774
▁being	-7.41788
▁might	-7.41913
▁nothing	-7.43564
▁most	-7.45173
▁make	-7.45202
▁saw	-7.45289
▁too	-7.46163
▁They	-7.4772
▁young	-7.48037
u	-7.48421
ness	-7.48989
▁face	-7.49789
st	-7.5015
▁every	-7.50315
▁left	-7.50446
▁door	-7.50834
▁un	-7.51044
▁another	-7.51605
▁took	-7.52408
▁seemed	-7.52487
▁night	-7.52811
▁off	-7.53036
▁father	-7.5465
▁room	-7.54987
▁take	-7.55076
▁When	-7.55688
▁though	-7.558
▁once	-7.55816
▁right	-7.55926
▁moment	-7.56344
in	-7.56409
I	-7.57313
▁Yes	-7.58702
▁yet	-7.58851
▁heard	-7.59389
▁tell	-7.59478
▁No	-7.5983
or	-7.60243
▁let	-7.60244
▁while	-7.61196
▁found	-7.62402
▁As	-7.63701
▁under	-7.63996
▁replied	-7.6414
▁looked	-7.65024
▁At	-7.65087
▁three	-7.65244
▁asked	-7.65508
f	-7.67121
▁place	-7.67944
▁whole	-7.68415
▁We	-7.6852
▁began	-7.69469
▁That	-7.70289
▁To	-7.70314
th	-7.70424
▁something	-7.70856
▁whom	-7.7115
re	-7.72041
▁side	-7.72196
▁people	-7.7231
▁round	-7.72478
l	-7.72861
▁CHAPTER	-7.74203
▁get	-7.7489
▁seen	-7.75056
▁"	-7.75124
g	-7.75432
▁love	-7.76841
▁Pierre	-7.76952
▁light	-7.77545
▁give	-7.77913
▁many	-7.77967
▁mind	-7.78153
▁always	-7.78195
▁look	-7.79925
o	-7.80024
it	-7.8029
▁count	-7.8067
▁felt	-7.81718
▁heart	-7.81889
▁So	-7.81941
▁also	-7.82005
▁each	-7.82801
▁If	-7.84182
▁against	-7.84454
▁1	-7.84584
▁Well	-7.85125
le	-7.85283
▁voice	-7.85286
▁far	-7.85729
▁His	-7.85862
▁put	-7.86184
▁having	-7.86341
▁dear	-7.86793
▁ever	-7.87171
▁For	-7.87357
▁end	-7.87932
▁Oh	-7.88183
▁Prince	-7.88423
i	-7.88537
▁things	-7.88754
▁hands	-7.88897
▁going	-7.8901
▁told	-7.89242
▁name	-7.89271
▁thing	-7.89464
en	-7.90055
▁words	-7.9142
ers	-7.91732
w	-7.91855
▁turned	-7.91918
▁Mr	-7.92384
▁done	-7.92613
▁soon	-7.92642
▁death	-7.9342
▁both	-7.93521
▁because	-7.94155
▁son	-7.94611
▁world	-7.94718
▁My	-7.94987
k	-7.9509
at	-7.96053
ion	-7.96455
▁quite	-7.96463
▁part	-7.96716
ic	-7.96986
▁find	-7.97368
▁cried	-7.97872
▁friend	-7.98819
ur	-8.00159
▁myself	-8.0019
▁between	-8.00432
▁knew	-8.00691
▁morning	-8.00961
▁Now	-8.01057
▁order	-8.02825
▁S	-8.02896
▁word	-8.02976
ar	-8.03133
ity	-8.03389
▁called	-8.03973
▁God	-8.05094
▁woman	-8.05419
est	-8.05508
ch	-8.05533
▁On	-8.06172
▁does	-8.06367
▁years	-8.06923
▁All	-8.07764
▁mother	-8.08084
▁war	-8.08319
▁gave	-8.08444
▁home	-8.08523
▁Marius	-8.08922
▁towards	-8.08944
▁re	-8.08959
▁poor	-8.09014
b	-8.09217
A	-8.09422
▁true	-8.09954
▁cannot	-8.10249
▁p	-8.10947
▁sir	-8.10975
▁behind	-8.1129
▁almost	-8.11386
▁passed	-8.11449
▁few	-8.1149
▁work	-8.11773
▁set	-8.12103
▁herself	-8.12382
on	-8.12394
▁air	-8.12493
▁soul	-8.12734
il	-8.12753
▁dead	-8.13391
▁stood	-8.13433
▁nor	-8.13698
▁got	-8.141
▁lay	-8.14562
▁anything	-8.14822
▁alone	-8.15022
▁fire	-8.15084
▁How	-8.15098
▁child	-8.15602
S	-8.15743
▁taken	-8.15903
h	-8.1603
▁sort	-8.16091
▁thus	-8.16233
▁already	-8.16331
▁arms	-8.16461
▁Natsha	-8.1655
▁better	-8.16737
us	-8.16752
▁speak	-8.16809
ation	-8.16882
▁half	-8.16932
▁sea	-8.17522
▁bed	-8.1789
and	-8.18583
▁thy	-8.18601
▁near	-8.19135
ul	-8.19205
▁full	-8.19494
less	-8.19578
▁among	-8.1978
is	-8.19857
▁others	-8.21081
▁want	-8.21534
ll	-8.21778
▁French	-8.21942
▁Jean	-8.22393
▁water	-8.22419
▁hear	-8.22422
ter	-8.22509
▁sat	-8.22996
▁white	-8.23024
▁since	-8.23212
▁C	-8.2328
ne	-8.23325
▁longer	-8.23346
▁Do	-8.23706
la	-8.23902
▁rest	-8.24033
▁dont	-8.24319
ra	-8.24377
▁fell	-8.24667
▁black	-8.24898
▁Andrew	-8.25128
▁Why	-8.25142
▁open	-8.2515
▁new	-8.25313
▁Monte	-8.25588
▁whose	-8.25764
▁One	-8.26003
an	-8.26017
ent	-8.26266
▁wife	-8.26356
...	-8.26587
▁understand	-8.26806
▁everything	-8.27132
▁Cristo	-8.27471
▁days	-8.27811
nt	-8.2802
▁brought	-8.2884
▁however	-8.2886
▁saying	-8.29689
▁O	-8.29739
▁return	-8.29786
▁army	-8.29986
▁ground	-8.30146
▁till	-8.30233
▁Valjean	-8.3024
▁Villefort	-8.30469
▁general	-8.30628
▁four	-8.31008
▁fear	-8.31074
▁matter	-8.31121
able	-8.31246
ry	-8.31422
▁Ah	-8.31543
v	-8.31572
▁along	-8.32238
▁With	-8.32238
▁table	-8.32532
▁evening	-8.33811
▁small	-8.33878
▁wish	-8.3425
▁second	-8.34269
▁themselves	-8.3439
▁whether	-8.34766
the	-8.3513
▁leave	-8.35387
▁kind	-8.35436
O	-8.35494
▁looking	-8.36582
▁given	-8.36652
▁rather	-8.36851
▁large	-8.3694
▁Cosette	-8.37473
▁P	-8.37621
▁returned	-8.37729
▁point	-8.378
ro	-8.38015
▁country	-8.38019
▁answered	-8.38479
▁enough	-8.3848
▁together	-8.38988
▁course	-8.39371
▁suddenly	-8.39582
▁present	-8.39921
ve	-8.40158
▁ship	-8.40173
▁power	-8.40302
▁question	-8.40736
as	-8.40804
▁why	-8.40812
▁gone	-8.41055
▁sight	-8.41104
ive	-8.41152
▁hour	-8.41321
▁case	-8.41475
▁feet	-8.41567
ate	-8.41579
▁smile	-8.41615
▁ask	-8.42411
▁thou	-8.42745
▁spoke	-8.43038
▁B	-8.43991
▁next	-8.44073
▁hundred	-8.44341
▁best	-8.4436
▁less	-8.44386
el	-8.4439
▁entered	-8.4456
▁F	-8.44619
▁body	-8.44767
▁thousand	-8.45015
▁believe	-8.45347
▁state	-8.45678
▁sun	-8.45841
▁sleep	-8.45907
▁ran	-8.45956
▁care	-8.45962
ful	-8.45988
ment	-8.4605
man	-8.46107
▁live	-8.46322
▁Danglars	-8.46524
▁earth	-8.46555
ant	-8.46564
▁high	-8.46656
▁lost	-8.47217
M	-8.47596
to	-8.47796
▁fact	-8.47887
▁certain	-8.47913
▁girl	-8.48026
▁help	-8.48234
▁around	-8.48729
▁perhaps	-8.4888
ri	-8.49115
id	-8.49371
▁really	-8.49457
▁letter	-8.49672
▁reason	-8.49856
▁short	-8.49998
▁idea	-8.50409
▁Madame	-8.50456
▁sound	-8.50689
ir	-8.50696
▁keep	-8.51258
▁either	-8.51284
▁above	-8.51861
▁call	-8.5192
▁least	-8.5215
▁turn	-8.52178
▁whale	-8.52488
li	-8.5255
▁sure	-8.52583
▁opened	-8.52766
▁close	-8.5307
▁arm	-8.53122
▁continued	-8.53149
▁indeed	-8.53176
▁hope	-8.53203
▁become	-8.53302
▁human	-8.53434
▁road	-8.53513
▁battle	-8.54054
▁manner	-8.54384
he	-8.54545
▁yourself	-8.54811
▁nature	-8.55089
▁held	-8.55147
▁possible	-8.55693
▁until	-8.55693
▁mean	-8.55941
▁sent	-8.56007
▁person	-8.56079
▁Let	-8.56243
▁strange	-8.56697
▁read	-8.57112
▁itself	-8.57117
▁red	-8.5742
▁happy	-8.57513
▁dark	-8.57917
▁Paris	-8.58211
▁front	-8.58581
▁coming	-8.58779
▁therefore	-8.58899
▁eye	-8.59046
▁children	-8.5907
ine	-8.59202
▁window	-8.59295
▁wall	-8.59456
▁rose	-8.59531
▁times	-8.5967
▁Albert	-8.59678
ies	-8.59712
de	-8.59754
te	-8.59775
▁answer	-8.59866
▁friends	-8.59971
lo	-8.60234
▁daughter	-8.60246
se	-8.60345
▁st	-8.60434
▁Rue	-8.60481
▁added	-8.60599
▁five	-8.608
▁money	-8.60938
ted	-8.61045
▁horse	-8.61245
▁T	-8.61315
▁doubt	-8.61333
▁remained	-8.61531
R	-8.61994
▁Count	-8.62212
▁became	-8.62393
ol	-8.62459
▁Rostv	-8.6253
▁heaven	-8.62652
▁Morrel	-8.62704
ous	-8.62819
▁truth	-8.62856
▁blood	-8.63044
▁chief	-8.63257
▁king	-8.63362
▁within	-8.65302
ated	-8.65712
▁hair	-8.65813
▁ten	-8.65856
ting	-8.65907
led	-8.66505
▁Mary	-8.66591
▁V	-8.66602
▁family	-8.66639
ver	-8.66706
▁terrible	-8.66807
▁Elizabeth	-8.66986
▁able	-8.67153
et	-8.6722
▁women	-8.67312
▁fall	-8.67422
▁Ulysses	-8.67481
um	-8.6765
▁Dants	-8.67651
me	-8.68137
▁Moscow	-8.68339
▁often	-8.68581
▁appeared	-8.68646
▁feeling	-8.69571
▁force	-8.69623
▁means	-8.69677
▁die	-8.6974
▁followed	-8.69819
▁E	-8.70098
▁making	-8.70258
▁sister	-8.70541
▁Who	-8.70823
▁use	-8.7095
▁talk	-8.71065
na	-8.71574
ce	-8.71872
▁pass	-8.71941
T	-8.72067
▁feel	-8.72075
▁fellow	-8.72254
▁else	-8.72329
▁hard	-8.72443
▁cold	-8.72503
▁2	-8.72553
▁taking	-8.72737
▁form	-8.72906
▁run	-8.72932
."	-8.72963
▁says	-8.73121
E	-8.73255
▁Here	-8.73612
▁during	-8.73765
▁expression	-8.73781
▁bring	-8.74052
▁c	-8.74156
▁known	-8.74242
▁W	-8.74253
▁ready	-8.7428
▁bad	-8.74482
▁ye	-8.74593
▁dis	-8.74909
▁town	-8.74984
▁beautiful	-8.75211
ge	-8.75411
▁kept	-8.75577
▁From	-8.75599
▁These	-8.75632
▁fine	-8.75656
▁received	-8.75947
ow	-8.76175
▁past	-8.76393
▁drew	-8.76683
▁seem	-8.76741
▁husband	-8.76775
▁reached	-8.76939
▁gods	-8.77171
▁age	-8.77242
ian	-8.77544
▁Not	-8.77675
▁THE	-8.77885
▁sometimes	-8.77989
C	-8.78472
▁view	-8.78488
▁Napoleon	-8.78509
▁horses	-8.78598
pe	-8.78977
▁seems	-8.79001
▁free	-8.79266
P	-8.79416
▁line	-8.79682
▁foot	-8.79691
▁Valentine	-8.79718
▁enemy	-8.80044
mp	-8.80054
▁By	-8.80077
▁deep	-8.80089
▁pleasure	-8.80313
▁cut	-8.8036
ling	-8.80365
▁Ill	-8.8038
ard	-8.80441
▁After	-8.80865
ish	-8.8095
▁Nicholas	-8.81443
▁brother	-8.81619
▁La	-8.81779
ut	-8.81948
▁St	-8.81997
▁la	-8.82032
▁placed	-8.82374
▁hold	-8.82425
men	-8.82553
▁doctor	-8.826
▁R	-8.827
▁different	-8.828
z	-8.82847
▁fair	-8.82849
▁Where	-8.83023
ck	-8.83181
▁need	-8.83213
▁cause	-8.83284
▁State	-8.83356
▁wind	-8.83432
▁land	-8.83451
▁silence	-8.83787
▁fight	-8.83949
▁Emperor	-8.84051
▁raised	-8.84091
▁soldiers	-8.84563
▁Jove	-8.84593
▁Come	-8.84636
▁pale	-8.84801
▁low	-8.84872
▁strength	-8.84878
1	-8.84939
▁corner	-8.85052
▁carriage	-8.85399
pa	-8.85495
▁joy	-8.85754
▁tried	-8.86245
▁francs	-8.86409
▁garden	-8.86437
▁Of	-8.86565
▁several	-8.86613
▁third	-8.86613
▁captain	-8.86615
▁strong	-8.86662
▁met	-8.86733
▁Be	-8.86756
ary	-8.8707
ti	-8.87194
im	-8.87211
▁mouth	-8.87435
▁position	-8.87487
L	-8.87603
▁An	-8.87621
▁attention	-8.87642
▁clear	-8.87699
▁D	-8.87724
all	-8.88027
▁justice	-8.88094
ward	-8.88101
▁account	-8.88472
▁subject	-8.88611
▁turning	-8.88893
ph	-8.89068
▁Her	-8.89391
▁plain	-8.89487
▁gold	-8.89525
rs	-8.89956
▁laid	-8.89966
▁Princess	-8.90109
▁business	-8.90155
▁remember	-8.90323
▁struck	-8.90369
▁evil	-8.90793
ia	-8.90957
▁art	-8.91208
▁ill	-8.91448
▁carried	-8.91475
▁forward	-8.91513
▁six	-8.91817
▁used	-8.9209
▁Thnardier	-8.92094
▁exclaimed	-8.92119
▁master	-8.92189
▁standing	-8.92687
▁beside	-8.92693
▁led	-8.92711
▁b	-8.92772
▁doing	-8.92796
▁common	-8.92954
▁stopped	-8.93388
▁e	-8.93423
▁happiness	-8.93607
▁con	-8.93777
ty	-8.93854
▁real	-8.93877
▁hardly	-8.93908
▁H	-8.93957
▁officer	-8.93977
▁Franz	-8.94047
▁city	-8.94088
D	-8.9438
▁further	-8.94491
▁effect	-8.94711
▁rich	-8.9484
▁number	-8.94987
▁street	-8.95122
▁watch	-8.95142
▁seeing	-8.95163
▁happened	-8.95378
▁across	-8.95379
op	-8.9539
▁evidently	-8.9594
▁year	-8.95978
▁living	-8.96052
▁ought	-8.96053
▁secret	-8.96263
▁certainly	-8.96446
▁oclock	-8.96729
▁neither	-8.96956
ance	-8.97054
▁G	-8.97171
▁sitting	-8.97192
▁knowledge	-8.97203
▁tone	-8.97554
▁beneath	-8.97639
▁wood	-8.97732
▁change	-8.97753
▁length	-8.97868
▁tears	-8.9799
▁speaking	-8.98164
om	-8.98359
▁suppose	-8.98675
▁Thus	-8.98804
▁crowd	-8.98829
▁bound	-8.9896
▁vain	-8.99488
▁fate	-8.99534
▁bright	-8.99721
un	-8.99874
▁hours	-8.99942
ot	-8.99951
▁Your	-8.99958
▁lips	-8.99997
▁law	-9.00269
▁en	-9.0034
▁Mrs	-9.00365
that	-9.00519
ton	-9.0056
be	-9.00561
▁field	-9.00649
▁boy	-9.00835
▁iron	-9.01141
▁minutes	-9.01225
▁wild	-9.01366
vi	-9.01449
for	-9.01539
▁prince	-9.01544
ie	-9.01686
▁wanted	-9.01697
▁impossible	-9.02079
▁forth	-9.02222
▁show	-9.02344
▁De	-9.02365
▁bear	-9.024
▁Kutzov	-9.02812
▁mine	-9.02866
▁later	-9.03226
▁comes	-9.03496
▁Go	-9.03577
▁late	-9.03858
am	-9.03887
▁dream	-9.04044
▁K	-9.04174
▁necessary	-9.04253
▁steps	-9.04297
▁stand	-9.04358
ac	-9.0439
▁yes	-9.0445
B	-9.04557
▁trees	-9.04582
▁closed	-9.04583
▁silent	-9.04744
▁opinion	-9.04754
▁Ahab	-9.04756
▁meet	-9.04832
▁attack	-9.05258
▁Some	-9.05304
ig	-9.05344
▁chance	-9.05393
▁youth	-9.05447
▁sp	-9.05456
▁lady	-9.05548
▁arrived	-9.05609
▁instant	-9.05984
▁sweet	-9.0617
▁blue	-9.06226
▁service	-9.06226
▁twenty	-9.06226
▁Miss	-9.0624
▁eat	-9.06292
▁following	-9.06366
▁wait	-9.06568
▁single	-9.06802
▁distance	-9.06976
▁story	-9.06984
▁moved	-9.06985
,"	-9.07023
▁fixed	-9.07087
▁dinner	-9.07227
▁character	-9.07731
▁conversation	-9.07732
▁Or	-9.07758
▁appear	-9.07834
ure	-9.07981
age	-9.0819
▁sign	-9.08257
▁ex	-9.08333
ious	-9.08352
▁countess	-9.08754
▁fortune	-9.09004
0	-9.09041
▁sense	-9.09074
▁glance	-9.09173
▁princess	-9.0921
▁killed	-9.09371
▁stay	-9.09378
▁wished	-9.09483
....	-9.09549
ist	-9.09644
▁Russian	-9.09686
▁honor	-9.0975
▁fresh	-9.09775
▁green	-9.09776
▁afraid	-9.10293
▁train	-9.10613
▁peace	-9.10955
▁ago	-9.1125
▁d	-9.116
▁beginning	-9.11602
go	-9.11607
▁desire	-9.11791
2	-9.12097
▁presence	-9.12125
▁try	-9.12293
ma	-9.12316
▁troops	-9.12317
▁hat	-9.12526
▁Holmes	-9.12655
▁Im	-9.12811
▁reply	-9.12922
▁visit	-9.12927
▁immediately	-9.12963
▁direction	-9.12983
▁talking	-9.13053
▁noble	-9.13378
▁shore	-9.13457
▁spot	-9.13472
▁coat	-9.13534
▁darkness	-9.13553
▁loved	-9.13553
▁cry	-9.13681
▁Monsieur	-9.13723
▁purpose	-9.13724
▁Ma	-9.13866
▁breast	-9.13992
▁remain	-9.14093
▁court	-9.14311
▁appearance	-9.14545
▁paper	-9.14753
▁step	-9.15029
▁understood	-9.15074
▁glad	-9.15102
▁walked	-9.15509
▁w	-9.15606
▁Snya	-9.1562
▁boat	-9.15665
▁drink	-9.16004
▁send	-9.1602
▁play	-9.16094
▁thinking	-9.16207
▁repeated	-9.16322
U	-9.16328
▁caught	-9.16446
▁interest	-9.16642
▁pro	-9.1666
▁smoke	-9.16721
▁Mademoiselle	-9.16733
▁broken	-9.16789
ke	-9.16889
▁escape	-9.1693
▁please	-9.16932
▁blow	-9.17272
▁floor	-9.17284
▁object	-9.17306
▁god	-9.17406
que	-9.17465
▁cast	-9.17537
▁pay	-9.1762
les	-9.17709
▁simple	-9.17833
▁ch	-9.17856
▁follow	-9.17894
▁seat	-9.17925
▁beyond	-9.18113
▁threw	-9.18113
▁passage	-9.18131
our	-9.18281
▁knows	-9.18423
up	-9.18461
▁lived	-9.18539
▁thoughts	-9.18583
▁respect	-9.18757
▁stone	-9.18838
▁except	-9.18898
▁le	-9.19053
▁act	-9.19057
▁waiting	-9.19171
ence	-9.19631
one	-9.19635
▁command	-9.19798
▁straight	-9.19811
▁seized	-9.19917
▁brave	-9.2004
▁car	-9.20069
▁soldier	-9.20133
▁none	-9.20326
no	-9.20366
▁wonder	-9.20571
▁book	-9.20601
▁enter	-9.20662
▁Nor	-9.20731
▁wine	-9.20852
▁cant	-9.21135
▁Darcy	-9.21248
▁Troy	-9.21248
▁commander	-9.21409
▁Javert	-9.21537
▁although	-9.21537
▁history	-9.21538
▁While	-9.21548
▁action	-9.21654
ill	-9.21661
▁race	-9.2169
▁Hector	-9.21828
▁ships	-9.21836
▁lie	-9.2197
▁quickly	-9.22026
▁filled	-9.22109
▁sky	-9.22122
▁allow	-9.22186
ER	-9.22363
▁Densov	-9.22412
▁wrong	-9.22412
▁top	-9.22668
▁glass	-9.22687
▁society	-9.22705
▁post	-9.22752
ip	-9.228
▁di	-9.22878
▁walk	-9.22976
▁danger	-9.22981
▁orders	-9.23287
ble	-9.23324
▁Po	-9.23336
vo	-9.23649
▁wide	-9.23663
▁anyone	-9.23689
▁pretty	-9.23887
▁tomorrow	-9.23887
▁neck	-9.23892
▁study	-9.23904
▁Ho	-9.23968
▁deal	-9.24042
▁sad	-9.24158
▁calm	-9.24182
▁marriage	-9.24185
▁Achilles	-9.24205
▁3	-9.24225
▁spirit	-9.24291
▁instead	-9.24448
▁makes	-9.24601
▁fathers	-9.2463
ring	-9.24706
▁news	-9.24928
▁grew	-9.25088
▁OF	-9.25105
▁L	-9.25141
per	-9.25321
▁silver	-9.25384
▁heavy	-9.25384
con	-9.25559
▁officers	-9.25646
3	-9.25676
▁Chapter	-9.25686
▁drawing	-9.25735
H	-9.25844
▁forest	-9.26142
▁Its	-9.26348
▁shouted	-9.26385
▁trouble	-9.26554
▁Dr	-9.26926
▁nearly	-9.27006
▁natural	-9.27274
▁spring	-9.27531
The	-9.27605
red	-9.27634
ta	-9.27748
▁easy	-9.27827
▁usual	-9.27928
▁fast	-9.27933
▁river	-9.28137
▁Caderousse	-9.28154
▁oer	-9.28217
▁stranger	-9.28244
▁Are	-9.28246
▁join	-9.28288
▁duty	-9.28459
▁bit	-9.28503
▁movement	-9.28639
▁greater	-9.28744
▁scene	-9.28759
▁big	-9.28827
▁King	-9.29007
▁Alice	-9.29088
▁wounded	-9.2912
▁ancient	-9.29135
▁slowly	-9.29164
▁giving	-9.29438
▁meaning	-9.29672
▁future	-9.29699
▁toward	-9.29793
G	-9.29991
▁sword	-9.30015
▁save	-9.30017
▁gentleman	-9.3003
▁Re	-9.3005
▁getting	-9.30099
▁sc	-9.30107
▁covered	-9.30271
▁merely	-9.30477
▁Le	-9.3048
▁promise	-9.30622
▁latter	-9.30649
▁below	-9.30649
▁leaving	-9.30655
ier	-9.30959
▁warm	-9.31253
▁Plato	-9.31285
▁blind	-9.31286
▁divine	-9.31287
▁host	-9.31643
▁gr	-9.31698
rt	-9.31741
▁regard	-9.31781
▁thick	-9.31891
▁mo	-9.32143
let	-9.32356
tic	-9.32388
▁co	-9.32541
os	-9.32643
ical	-9.32661
▁public	-9.32899
▁noticed	-9.33182
▁figure	-9.33231
▁running	-9.33234
▁sit	-9.33254
sh	-9.33261
ating	-9.33353
▁formed	-9.33456
▁Very	-9.33579
▁seven	-9.33587
▁kill	-9.33627
▁fallen	-9.33688
▁occasion	-9.33808
▁terror	-9.3388
▁expected	-9.33885
▁died	-9.33908
▁Good	-9.3394
▁leg	-9.33975
▁smiled	-9.34091
▁former	-9.34184
▁See	-9.34214
▁probably	-9.34229
▁Pooh	-9.34277
▁Morcerf	-9.34539
▁beauty	-9.34539
▁middle	-9.34539
▁France	-9.34541
▁afterwards	-9.34872
che	-9.34885
▁move	-9.34913
▁imp	-9.35109
ial	-9.35217
▁forget	-9.35645
we	-9.3574
▁Have	-9.35953
▁noise	-9.36026
▁early	-9.36064
▁police	-9.36184
▁despair	-9.36205
▁rise	-9.36466
Y	-9.36502
F	-9.36531
ba	-9.36554
▁receive	-9.36874
▁rage	-9.3697
▁reach	-9.37004
ni	-9.37032
▁per	-9.3708
▁Dorothy	-9.37219
▁asleep	-9.37219
▁Van	-9.37285
▁wont	-9.37304
▁bow	-9.37308
▁Lord	-9.37562
▁today	-9.37589
▁Yet	-9.37595
▁trying	-9.37783
▁greatest	-9.37839
ions	-9.38155
▁months	-9.38238
▁Father	-9.38245
▁broad	-9.38245
▁chair	-9.38339
▁passing	-9.38407
end	-9.38508
▁angry	-9.38587
▁laugh	-9.39042
▁servant	-9.39057
▁plan	-9.3907
▁Li	-9.39077
▁pity	-9.39104
▁teeth	-9.39277
ave	-9.39378
▁tree	-9.39461
▁pain	-9.3953
▁Such	-9.39655
ha	-9.39677
▁pre	-9.39814
ned	-9.39815
▁eight	-9.39849
▁cap	-9.39854
▁box	-9.3999
▁r	-9.40128
▁paid	-9.4033
▁Ha	-9.40332
▁walls	-9.40491
▁married	-9.40673
▁pocket	-9.40832
▁gate	-9.41028
▁du	-9.41058
bl	-9.41075
▁dreadful	-9.41128
way	-9.41139
ho	-9.4119
▁quarter	-9.41192
ities	-9.41244
ak	-9.41282
▁written	-9.41379
▁Whale	-9.41379
ice	-9.41414
▁shoulders	-9.41475
▁honour	-9.41528
▁minute	-9.41588
▁mans	-9.41732
▁barricade	-9.41734
▁village	-9.41737
x	-9.41902
tion	-9.42112
ng	-9.42352
▁Just	-9.42428
▁dress	-9.42532
▁fish	-9.42563
▁quick	-9.42565
▁sl	-9.42666
▁wise	-9.42687
ations	-9.42749
▁carry	-9.42756
ts	-9.42806
▁grave	-9.42982
▁breath	-9.43054
ire	-9.43108
▁Bennet	-9.43165
▁especially	-9.43173
▁listened	-9.43249
▁mad	-9.43458
land	-9.43517
▁holding	-9.43609
▁courage	-9.4387
▁imagine	-9.43906
▁according	-9.44131
nce	-9.44193
▁Noirtier	-9.44252
▁journey	-9.44252
▁thunder	-9.44253
▁flew	-9.44257
▁Certainly	-9.44275
▁tall	-9.44282
▁piece	-9.44286
▁outside	-9.44357
▁dare	-9.44366
▁everyone	-9.44688
ff	-9.44791
▁perfectly	-9.44806
▁food	-9.44985
▁surprise	-9.45006
▁whatever	-9.45152
▁lies	-9.45279
▁smiling	-9.45352
▁lying	-9.4544
▁spite	-9.4547
▁serious	-9.45475
▁sudden	-9.45476
▁cross	-9.45549
▁sa	-9.4562
▁regiment	-9.45655
▁judge	-9.4572
▁rising	-9.45722
▁bread	-9.45723
▁ball	-9.46035
ade	-9.46121
▁begin	-9.46123
▁virtue	-9.46368
▁em	-9.46414
▁rain	-9.46507
ft	-9.46534
▁draw	-9.46601
▁disappeared	-9.46605
▁company	-9.46835
▁mortal	-9.46835
▁Captain	-9.46836
▁shut	-9.46976
▁dog	-9.46995
em	-9.47045
▁spread	-9.47146
▁grand	-9.47236
▁guard	-9.47279
▁golden	-9.47281
▁hero	-9.47285
▁shot	-9.47373
▁easily	-9.47585
▁grief	-9.47585
▁pleased	-9.47676
▁whales	-9.4774
▁write	-9.47967
▁thin	-9.48094
▁party	-9.48202
▁proud	-9.48342
▁Helsing	-9.48342
▁fl	-9.48348
▁stop	-9.48369
▁listen	-9.486
▁result	-9.48671
▁horror	-9.48722
▁shook	-9.48725
▁bent	-9.48731
rus	-9.48743
▁bore	-9.4898
▁attempt	-9.49013
▁shadow	-9.49065
▁opposite	-9.49103
▁crew	-9.49179
bb	-9.4918
▁lower	-9.49214
▁feelings	-9.4923
▁ma	-9.49249
▁utter	-9.4933
ism	-9.49411
▁Greek	-9.49455
▁sake	-9.49498
▁consider	-9.49559
V	-9.49577
▁persons	-9.49835
▁excellency	-9.49871
▁important	-9.49875
▁g	-9.50077
▁explain	-9.50174
▁marry	-9.50214
▁Dlokhov	-9.50257
▁faint	-9.50541
▁contrary	-9.50646
ca	-9.51027
▁chamber	-9.51034
▁lose	-9.51104
▁touch	-9.51175
▁allowed	-9.51274
▁hung	-9.51346
▁cr	-9.51366
▁twelve	-9.51425
if	-9.51456
lu	-9.51469
▁observed	-9.51687
▁events	-9.51706
▁Jane	-9.51825
den	-9.51874
▁seek	-9.51886
der	-9.51962
▁Only	-9.52076
▁peculiar	-9.52169
▁advantage	-9.52192
▁drove	-9.5221
▁gentlemen	-9.52224
▁ones	-9.52235
▁dressed	-9.52333
ably	-9.52414
▁sons	-9.52457
▁broke	-9.52508
▁lives	-9.52516
▁Bingley	-9.52606
▁bottom	-9.52606
▁ba	-9.52708
▁board	-9.52714
like	-9.52764
ever	-9.52947
act	-9.53013
▁prove	-9.5309
▁deck	-9.53139
▁Thats	-9.53146
▁ideas	-9.53264
▁pointed	-9.53294
ber	-9.53302
ou	-9.5339
▁Did	-9.53714
▁island	-9.53721
▁seated	-9.53754
▁showed	-9.53784
▁worth	-9.53787
▁unknown	-9.53801
▁vast	-9.53801
▁drawn	-9.53906
mo	-9.54115
▁started	-9.54187
▁various	-9.54202
▁devil	-9.54203
▁girls	-9.54253
▁soft	-9.5428
▁entirely	-9.5435
▁English	-9.54584
▁shoulder	-9.54695
▁self	-9.54759
?"	-9.54859
▁ourselves	-9.55011
▁kings	-9.55023
▁wound	-9.55024
▁sharp	-9.55172
▁sides	-9.55215
▁knees	-9.5523
▁burst	-9.55383
▁fault	-9.55417
▁visible	-9.55417
▁loud	-9.55464
▁rock	-9.55567
▁aim	-9.55764
ld	-9.55795
▁break	-9.55795
▁difficulty	-9.55944
▁slight	-9.56006
▁mass	-9.56177
▁Anna	-9.56268
▁stream	-9.56283
▁equal	-9.56392
▁questions	-9.56393
▁bold	-9.56417
▁Ca	-9.56434
▁walking	-9.56435
▁heads	-9.56555
▁Sir	-9.56559
▁dust	-9.56582
▁legs	-9.56612
▁opening	-9.56628
▁trust	-9.56647
▁houses	-9.56651
▁existence	-9.56653
▁touched	-9.56735
ten	-9.56847
▁ha	-9.56876
▁Al	-9.56929
▁music	-9.56993
▁circle	-9.5706
▁beheld	-9.5706
▁Nothing	-9.57062
▁scarcely	-9.57113
▁sorrow	-9.57142
oc	-9.57161
so	-9.57245
▁presented	-9.5733
▁notice	-9.57354
▁offer	-9.57438
▁Two	-9.5746
▁Andrea	-9.57476
▁learned	-9.57523
▁aside	-9.57543
und	-9.57566
▁knowing	-9.57654
▁changed	-9.57685
▁gazed	-9.57713
▁finished	-9.57753
▁Sun	-9.57804
do	-9.57848
▁Bors	-9.57931
▁Their	-9.58199
▁letters	-9.58213
ang	-9.58218
ally	-9.58244
▁caused	-9.58254
▁Edmond	-9.5831
▁military	-9.5831
▁science	-9.5831
▁path	-9.58311
▁fifty	-9.58335
▁N	-9.58483
▁learn	-9.58535
▁ear	-9.5854
▁march	-9.587
▁government	-9.5874
▁Gavroche	-9.58748
ors	-9.58789
▁affair	-9.58814
▁inquired	-9.58843
▁quiet	-9.58913
▁fly	-9.59084
▁key	-9.59154
▁abb	-9.59222
ily	-9.59462
▁note	-9.59484
▁worse	-9.59576
▁streets	-9.59641
▁ho	-9.59968
▁simply	-9.60001
▁wrote	-9.60001
▁advance	-9.60084
▁creature	-9.60186
▁servants	-9.60273
▁Can	-9.60286
mon	-9.60339
▁fierce	-9.60429
▁rode	-9.60442
▁ladies	-9.60443
▁meant	-9.60471
▁ears	-9.60698
ub	-9.60798
▁occupied	-9.60858
ise	-9.61031
▁Cha	-9.61043
▁condition	-9.61059
▁gentle	-9.61196
▁particular	-9.61249
▁moving	-9.61289
ile	-9.6137
▁frightened	-9.61389
▁effort	-9.61499
▁health	-9.6159
▁empty	-9.61722
▁spear	-9.61722
▁double	-9.61729
▁fit	-9.61742
▁forced	-9.61756
▁drive	-9.61811
▁po	-9.61834
▁perceived	-9.61895
ged	-9.61952
▁snow	-9.62024
▁Me	-9.62029
▁sh	-9.62121
▁satisfied	-9.62156
ns	-9.62159
▁bridge	-9.62201
▁v	-9.6226
▁Saint	-9.62263
▁unable	-9.6236
▁Bo	-9.6248
▁pleasant	-9.62593
▁handsome	-9.62659
▁main	-9.62712
▁clouds	-9.62762
▁remarked	-9.63002
▁forgotten	-9.63035
▁flight	-9.63043
▁sum	-9.6306
W	-9.63174
▁ordered	-9.63234
▁spoken	-9.63377
▁trembling	-9.63472
▁Th	-9.63481
▁begun	-9.63484
▁clothes	-9.63535
▁complete	-9.6382
▁advanced	-9.63829
▁approached	-9.63838
▁rule	-9.64076
od	-9.64102
▁lo	-9.64162
ON	-9.64186
▁cloud	-9.64188
ea	-9.64365
▁gain	-9.64381
▁li	-9.6441
▁laughing	-9.64478
▁lead	-9.64497
▁windows	-9.64646
▁appears	-9.6467
▁mighty	-9.64709
▁address	-9.64797
▁Fauchelevent	-9.64806
▁profound	-9.64806
▁search	-9.64812
▁gloomy	-9.64879
▁thrown	-9.64899
▁mu	-9.64921
ab	-9.65011
▁circumstances	-9.65245
▁group	-9.65254
▁fancy	-9.65257
▁tr	-9.65315
but	-9.65346
og	-9.65466
▁rushed	-9.66042
kin	-9.66076
▁surprised	-9.66129
▁harm	-9.66161
▁BOOK	-9.66225
▁com	-9.66259
▁des	-9.66338
▁stern	-9.66377
▁talked	-9.66465
▁waited	-9.66556
▁laughed	-9.66775
▁likely	-9.66781
▁ring	-9.66869
▁goes	-9.67057
▁midst	-9.67067
▁London	-9.67068
▁Even	-9.67068
▁memory	-9.67088
ius	-9.67102
▁Louis	-9.67134
▁remembered	-9.67164
THE	-9.67357
▁Homer	-9.67492
▁countenance	-9.67527
▁alive	-9.67533
▁occurred	-9.67533
▁However	-9.67561
▁Chi	-9.67629
▁safe	-9.67634
▁Dont	-9.6767
▁May	-9.67695
▁vi	-9.67764
▁expect	-9.67856
▁bird	-9.67881
▁Illustration	-9.67988
▁priest	-9.67989
▁cook	-9.67997
▁uttered	-9.68091
▁offered	-9.68096
iv	-9.68146
▁difficult	-9.68298
▁prevent	-9.68443
▁Gatsby	-9.68451
▁Greece	-9.68451
▁influence	-9.68451
▁lord	-9.68456
▁Maximilian	-9.68471
▁hill	-9.68475
▁Pa	-9.68511
▁engaged	-9.69021
▁Br	-9.69108
▁prepared	-9.69117
▁charming	-9.69166
▁delight	-9.69297
▁companion	-9.69308
▁throw	-9.69314
▁Stubb	-9.69383
▁suitors	-9.69389
▁curious	-9.69394
▁grow	-9.69447
▁sand	-9.69449
▁perfect	-9.69542
ny	-9.69799
▁content	-9.69852
▁Bishop	-9.69853
▁similar	-9.69853
▁yellow	-9.69856
▁gun	-9.69901
▁glanced	-9.70014
▁pen	-9.70069
▁happen	-9.70156
▁crime	-9.70257
He	-9.70262
▁besides	-9.70314
▁mentioned	-9.70314
▁Madeleine	-9.70324
▁sacred	-9.70324
va	-9.70332
▁spent	-9.70374
ight	-9.70502
ens	-9.70758
▁sick	-9.70813
▁Still	-9.70822
▁sing	-9.70825
da	-9.70888
▁lines	-9.709
▁rapidly	-9.70967
▁bell	-9.70981
▁meeting	-9.71176
▁admit	-9.71255
▁nine	-9.71267
▁Telemachus	-9.71274
▁glory	-9.71274
▁f	-9.71362
▁nose	-9.71408
▁Gr	-9.71452
▁affairs	-9.71658
▁moments	-9.71683
▁hole	-9.71749
▁period	-9.71753
▁philosophy	-9.71753
▁Though	-9.71753
▁education	-9.71755
▁mention	-9.71878
▁suffer	-9.72147
▁false	-9.7223
▁Enjolras	-9.72234
▁distant	-9.72234
▁space	-9.7224
▁Co	-9.72277
▁papers	-9.72323
▁experience	-9.72372
▁Mar	-9.72661
▁language	-9.72717
▁narrow	-9.72717
▁Ptya	-9.72717
▁possession	-9.72783
N	-9.72839
▁bo	-9.72901
▁places	-9.73106
▁brow	-9.73161
▁Mercds	-9.73202
▁breakfast	-9.73202
▁yield	-9.73216
▁Will	-9.73229
▁generally	-9.73241
▁fill	-9.73249
▁evident	-9.73446
▁habit	-9.73493
▁mothers	-9.73604
▁month	-9.73724
▁hall	-9.73737
▁behold	-9.73793
▁direct	-9.73842
ite	-9.73847
▁aid	-9.73991
▁higher	-9.74119
▁Vasli	-9.7418
▁writing	-9.7418
▁degree	-9.74189
▁week	-9.74193
▁resumed	-9.74227
▁considered	-9.74289
io	-9.74296
cy	-9.74333
▁cur	-9.74432
▁burning	-9.7453
▁enormous	-9.74673
▁excellent	-9.74673
▁melancholy	-9.74673
▁pride	-9.74673
▁acquaintance	-9.74674
▁finger	-9.74699
▁Had	-9.74806
▁cat	-9.74872
▁served	-9.74937
▁example	-9.75168
▁mysterious	-9.75168
▁situation	-9.75168
▁dying	-9.75171
▁Look	-9.75178
ping	-9.75179
▁saved	-9.75213
ron	-9.75308
▁paused	-9.75419
▁bar	-9.75591
▁picture	-9.75665
ueequeg	-9.75665
▁unhappy	-9.75665
▁shock	-9.7567
▁ruin	-9.75737
▁report	-9.75748
▁fatal	-9.75829
▁sought	-9.75863
ls	-9.76039
▁storm	-9.76091
▁author	-9.76125
▁pistol	-9.76165
▁treasure	-9.76165
▁lance	-9.76196
▁nearer	-9.7622
bu	-9.76224
▁voices	-9.76231
▁Our	-9.76312
▁prisoner	-9.76327
▁beat	-9.76347
▁maid	-9.76367
▁sacrifice	-9.76538
▁expressed	-9.76631
▁remark	-9.76634
▁roof	-9.76672
▁obey	-9.76702
▁faces	-9.76762
ue	-9.77111
▁pray	-9.77131
▁monster	-9.77173
▁express	-9.77201
ons	-9.77344
▁start	-9.77436
▁pure	-9.77479
▁church	-9.77591
▁motion	-9.77666
▁intention	-9.7772
▁fields	-9.77822
▁reader	-9.77831
▁Tom	-9.77929
▁flowers	-9.78017
▁Sa	-9.7809
▁yesterday	-9.78191
▁forehead	-9.78191
▁slain	-9.78198
▁destroy	-9.78232
ew	-9.78315
▁carefully	-9.7834
ES	-9.78465
res	-9.78573
son	-9.78603
▁comfort	-9.78672
▁speech	-9.78703
▁difference	-9.78706
▁conceal	-9.78748
▁agree	-9.78863
au	-9.79098
▁Beauchamp	-9.79219
▁German	-9.79219
▁singular	-9.79221
▁everybody	-9.79226
ress	-9.79556
▁kissed	-9.79623
▁reading	-9.79673
▁immense	-9.79737
▁supper	-9.7974
▁beg	-9.79741
▁success	-9.79776
▁accept	-9.79787
▁listening	-9.79817
▁individual	-9.79861
▁share	-9.79915
▁foe	-9.79934
▁Pro	-9.80177
▁class	-9.80184
▁honest	-9.80258
▁star	-9.8032
▁forms	-9.80365
▁recognized	-9.80541
▁Besides	-9.80544
▁discovered	-9.80632
▁looks	-9.80659
▁decided	-9.8067
▁wonderful	-9.8069
▁sprang	-9.80781
▁addressed	-9.80807
▁promised	-9.80825
▁obliged	-9.80831
▁alarm	-9.80921
▁boats	-9.80935
▁falling	-9.81092
▁mistake	-9.81211
▁Every	-9.81297
▁design	-9.81308
▁Tz	-9.81358
▁watched	-9.81363
▁powers	-9.81366
▁interrupted	-9.81424
▁ta	-9.81444
▁proceed	-9.81455
ther	-9.81483
▁lifted	-9.81547
▁produced	-9.81574
▁Ro	-9.81627
ner	-9.81698
ship	-9.81731
ick	-9.81732
house	-9.81742
▁fashion	-9.81812
▁John	-9.81837
▁grass	-9.81838
▁Greeks	-9.8188
▁didnt	-9.81883
▁hearing	-9.81897
▁clearly	-9.81931
▁Trojan	-9.82009
▁ceased	-9.82042
▁special	-9.82085
▁misery	-9.8241
ze	-9.82477
▁remains	-9.82492
▁inside	-9.82497
▁brain	-9.82552
▁charge	-9.82557
▁bowed	-9.82573
▁hot	-9.8265
▁experienced	-9.8275
▁sail	-9.8278
▁due	-9.82782
▁U	-9.82792
▁speed	-9.82898
▁Before	-9.82904
▁arrival	-9.82904
▁immortal	-9.82904
▁shadows	-9.82958
by	-9.83011
▁pressed	-9.83107
RE	-9.83438
▁thirty	-9.83441
▁uniform	-9.83441
▁Great	-9.83441
▁Take	-9.8345
hi	-9.83457
▁Con	-9.83518
▁cart	-9.8355
▁weak	-9.83583
▁rope	-9.83593
▁measure	-9.83634
▁taste	-9.83636
▁Sh	-9.83648
▁dance	-9.83667
▁believed	-9.83734
▁par	-9.83742
▁mark	-9.83937
ex	-9.83945
▁Grecian	-9.83982
▁depend	-9.83982
▁tongue	-9.83983
▁vessel	-9.84199
▁firm	-9.84225
▁supposed	-9.84249
▁mere	-9.84306
▁prison	-9.84373
▁superior	-9.84492
▁watching	-9.84506
▁Scarecrow	-9.84525
▁brothers	-9.84527
▁victory	-9.84591
aving	-9.84649
▁settled	-9.84687
▁add	-9.84792
▁office	-9.84858
ain	-9.84884
▁Un	-9.84912
▁heavens	-9.84937
▁fingers	-9.85044
▁liberty	-9.85072
▁square	-9.85072
▁wolf	-9.85072
▁clean	-9.85072
▁sorry	-9.85073
▁Ive	-9.85081
▁affection	-9.85104
▁dart	-9.85161
▁amid	-9.85379
▁rear	-9.85442
▁sigh	-9.8546
▁lad	-9.8549
▁fond	-9.85652
▁matters	-9.85838
▁bare	-9.85853
▁someone	-9.85858
ris	-9.85973
▁shape	-9.86011
▁lock	-9.86016
▁growing	-9.86137
▁Petersburg	-9.86174
▁property	-9.86186
▁slave	-9.86187
oo	-9.86233
▁loss	-9.8624
▁worthy	-9.86359
tes	-9.86361
▁tear	-9.86587
▁grandfather	-9.86729
▁Gillenormand	-9.8675
▁farther	-9.86771
▁lamp	-9.86773
▁somewhat	-9.868
▁weight	-9.86823
▁grown	-9.86932
▁Was	-9.86953
▁event	-9.86992
▁shame	-9.87013
▁unless	-9.87025
▁required	-9.87086
▁Because	-9.87288
▁entrance	-9.87288
▁strike	-9.87288
▁absence	-9.87288
▁dropped	-9.87288
▁cannon	-9.87291
▁fury	-9.87363
▁fail	-9.87395
▁song	-9.87439
▁inter	-9.87512
▁roll	-9.87525
side	-9.87566
▁confess	-9.87795
▁tail	-9.87803
▁fool	-9.87844
▁century	-9.8785
▁stupid	-9.8785
▁possess	-9.87853
▁Mina	-9.87904
▁avoid	-9.87941
▁conduct	-9.87976
▁retreat	-9.88066
▁descend	-9.88069
▁grace	-9.88087
▁whispered	-9.88185
▁dogs	-9.88222
▁gives	-9.88333
▁waves	-9.88361
▁guns	-9.88377
▁height	-9.884
▁custom	-9.88415
▁royal	-9.88415
▁huge	-9.88415
▁haste	-9.88507
▁exactly	-9.88573
▁wake	-9.88596
▁approach	-9.88643
CH	-9.88764
▁thrust	-9.88983
▁voyage	-9.88983
▁modern	-9.88983
▁task	-9.88984
▁mankind	-9.88984
▁Tell	-9.88996
▁Like	-9.89001
▁mingled	-9.89051
bo	-9.89051
ix	-9.89233
▁fa	-9.89278
▁Gregor	-9.89312
rk	-9.89338
gu	-9.89376
▁crown	-9.89443
ified	-9.8954
▁instantly	-9.89543
nd	-9.89546
▁Debray	-9.89554
▁Perhaps	-9.89554
▁private	-9.89554
▁blame	-9.89554
▁unjust	-9.89564
▁motionless	-9.89586
lus	-9.89723
▁Lo	-9.89751
▁catch	-9.89753
▁anxious	-9.89884
▁spirits	-9.89997
▁argument	-9.90129
▁lot	-9.9021
king	-9.90298
▁daughters	-9.90349
gg	-9.90599
ler	-9.90612
▁curiosity	-9.90707
▁twice	-9.90707
▁nurse	-9.90708
▁strain	-9.9071
IN	-9.9075
▁birds	-9.90849
▁game	-9.90911
▁original	-9.9103
▁particularly	-9.91034
unt	-9.91126
▁True	-9.91288
▁chariot	-9.91288
▁camp	-9.91303
▁impression	-9.91329
▁born	-9.91343
▁useless	-9.91382
▁roar	-9.91399
▁greatly	-9.91418
▁asking	-9.91438
▁cover	-9.91456
▁Tu	-9.91527
▁suffering	-9.91607
▁proper	-9.91635
tte	-9.91637
▁thank	-9.91671
br	-9.91798
▁cloak	-9.91873
▁necessity	-9.91873
▁miserable	-9.91881
▁principle	-9.91881
▁dry	-9.91939
▁moon	-9.91971
mme	-9.92101
OR	-9.92105
lt	-9.9225
▁peasant	-9.92279
▁tea	-9.92288
▁horrible	-9.92461
▁monarch	-9.92461
▁slept	-9.92461
▁prize	-9.92499
ory	-9.9258
▁attend	-9.92683
▁books	-9.92713
▁completely	-9.92786
▁telling	-9.92831
▁souls	-9.9285
▁Lucy	-9.92876
▁band	-9.93024
▁Piglet	-9.93053
▁shield	-9.93053
▁Having	-9.93068
ces	-9.931
▁flies	-9.93106
▁edge	-9.93115
▁putting	-9.93196
▁shown	-9.93298
▁ideal	-9.93323
▁leaves	-9.93566
▁prisoners	-9.93623
▁suffered	-9.93634
▁Minerva	-9.93648
▁fetch	-9.93648
▁reproach	-9.93648
▁First	-9.93648
▁clever	-9.93648
▁wicked	-9.93648
▁Shall	-9.93664
ack	-9.93678
▁escaped	-9.93794
out	-9.93802
▁parts	-9.93846
▁succeeded	-9.93994
▁mist	-9.94021
▁require	-9.94035
▁dread	-9.94078
▁Catherine	-9.94247
▁Silver	-9.94247
▁throat	-9.94247
ING	-9.9425
▁ease	-9.94252
▁proof	-9.94258
of	-9.94287
▁madame	-9.943
▁sisters	-9.94351
▁kiss	-9.9438
qui	-9.94384
ski	-9.9444
▁observe	-9.94461
▁gaze	-9.94509
▁wretched	-9.94615
uff	-9.94623
▁scar	-9.94662
▁flow	-9.94799
▁pardon	-9.94853
▁level	-9.94854
▁wore	-9.94857
▁convinced	-9.94935
▁Ba	-9.9496
ized	-9.94991
▁crossed	-9.95014
ep	-9.95086
▁port	-9.95288
▁approaching	-9.95317
▁flame	-9.95326
▁lofty	-9.95456
▁freedom	-9.95456
▁excuse	-9.95457
▁delay	-9.95501
▁names	-9.95516
▁excited	-9.9554
▁anger	-9.95596
▁hide	-9.956
▁intended	-9.95683
▁murmured	-9.95739
ey	-9.95872
▁wishes	-9.95902
▁possessed	-9.95964
▁parents	-9.95984
▁concealed	-9.96012
ash	-9.96036
▁counsel	-9.96065
▁dawn	-9.96065
▁instance	-9.96067
▁rough	-9.96069
▁severe	-9.9607
you	-9.96098
▁chest	-9.96137
▁shoes	-9.96174
▁row	-9.96185
▁assured	-9.96404
▁colour	-9.96615
▁Those	-9.96679
▁pair	-9.9669
AN	-9.96712
▁dull	-9.9673
▁AND	-9.96847
▁groan	-9.96856
▁burn	-9.96877
▁accident	-9.96889
▁pulled	-9.96896
▁solemn	-9.97018
▁bearing	-9.97203
▁advice	-9.97296
▁hollow	-9.97296
▁opportunity	-9.97296
▁Mother	-9.97301
▁tomb	-9.97317
ning	-9.97321
▁mistaken	-9.97411
▁i	-9.97421
▁heroes	-9.97449
▁Thy	-9.97496
▁absolutely	-9.97506
▁Anatole	-9.97917
▁request	-9.97917
▁summer	-9.97918
▁Each	-9.97933
▁winter	-9.97933
▁grant	-9.97964
▁distress	-9.97979
▁fe	-9.98082
fer	-9.98096
▁Lion	-9.98195
▁assure	-9.98223
▁tender	-9.98322
ps	-9.98327
▁lighted	-9.98431
▁understanding	-9.98474
▁shade	-9.98478
▁feared	-9.98538
▁Fernand	-9.98542
▁familiar	-9.98542
▁fifteen	-9.98542
her	-9.98547
▁cloth	-9.98606
▁claim	-9.9866
▁cheerful	-9.98762
EN	-9.98792
▁wear	-9.98801
▁bu	-9.9887
▁entering	-9.98871
▁rush	-9.98892
ments	-9.98946
▁bitter	-9.98981
▁Fantine	-9.99171
▁explanation	-9.99171
▁everywhere	-9.99192
▁flying	-9.99197
▁centre	-9.99252
ran	-9.99282
tern	-9.99453
▁quietly	-9.99536
▁previous	-9.9956
not	-9.99612
board	-9.99695
▁lu	-9.99729
▁ocean	-9.99804
▁cousin	-9.99804
▁estate	-9.99805
▁connection	-9.99823
▁personal	-9.99828
▁ca	-9.99834
▁suit	-9.99969
▁laws	-10
▁recognize	-10.001
▁violent	-10.002
▁station	-10.0021
▁temper	-10.0043
▁Collins	-10.0044
▁Socrates	-10.0044
▁goddess	-10.0044
▁regular	-10.0044
▁savage	-10.0044
▁skill	-10.0044
▁Rostvs	-10.0051
▁reality	-10.0054
▁sleeping	-10.0058
▁surrounded	-10.0058
press	-10.0059
▁forty	-10.0061
▁hopes	-10.0062
▁pieces	-10.0067
▁removed	-10.007
▁se	-10.0082
▁liked	-10.0088
▁witness	-10.0104
▁conscience	-10.0108
▁sovereign	-10.0108
▁Alas	-10.0114
▁continually	-10.0115
▁mi	-10.012
▁choose	-10.0123
▁serve	-10.0138
▁render	-10.0139
▁sire	-10.014
tru	-10.0143
▁ra	-10.0149
time	-10.0151
▁Hu	-10.0162
▁aware	-10.017
▁Ta	-10.0172
▁splendid	-10.0173
▁confidence	-10.0173
▁angel	-10.0173
▁Lady	-10.0174
light	-10.0175
▁dangerous	-10.0177
▁otherwise	-10.0177
dy	-10.0178
▁combat	-10.0179
▁school	-10.0181
▁ti	-10.0183
▁Thou	-10.0183
tre	-10.0201
rr	-10.0202
▁ranks	-10.0202
00	-10.021
▁proved	-10.0229
▁singing	-10.0234
▁Bolknski	-10.0238
▁famous	-10.0238
▁praise	-10.0238
▁Heaven	-10.0238
▁bottle	-10.0238
rit	-10.0245
▁takes	-10.0252
▁becomes	-10.0255
▁shop	-10.0259
▁ere	-10.0262
▁described	-10.0263
▁swift	-10.0279
▁corpse	-10.0283
ars	-10.0291
▁descended	-10.0292
tro	-10.0293
▁Jonathan	-10.0303
▁convent	-10.0303
▁shining	-10.0303
▁project	-10.0303
▁Courfeyrac	-10.0305
▁authority	-10.0307
▁New	-10.0307
▁fame	-10.0308
▁discover	-10.0309
▁finally	-10.0321
▁gathered	-10.0324
▁raise	-10.0335
▁IV	-10.0346
▁picked	-10.0347
ung	-10.0354
▁stars	-10.0368
▁birth	-10.0369
▁progress	-10.0369
▁value	-10.0369
▁afternoon	-10.0369
▁style	-10.0369
▁hastily	-10.0369
▁departure	-10.0369
▁extraordinary	-10.0369
▁lightning	-10.0374
▁determined	-10.0384
▁Once	-10.0386
▁pushed	-10.0388
ric	-10.0395
ging	-10.0395
▁entire	-10.0411
▁fat	-10.0411
ries	-10.0434
▁Wickham	-10.0435
▁imagination	-10.0435
▁native	-10.0435
▁shirt	-10.0435
▁stepped	-10.0435
▁veil	-10.0435
▁doors	-10.0436
▁hidden	-10.0436
▁painful	-10.0436
▁accustomed	-10.0439
▁sewer	-10.0443
▁wedding	-10.0447
▁stretch	-10.0455
▁wretch	-10.0455
▁demand	-10.0459
▁exist	-10.0461
ught	-10.0466
▁arrive	-10.0467
▁lovely	-10.0472
▁vague	-10.0477
old	-10.0494
▁gazing	-10.0502
▁defend	-10.0502
▁hurt	-10.0502
▁feast	-10.0502
▁social	-10.0502
▁skies	-10.0502
▁accompanied	-10.0503
▁laughter	-10.0507
▁miles	-10.0509
▁heap	-10.051
▁fighting	-10.0515
▁finding	-10.0516
▁equally	-10.0542
▁agreed	-10.0547
▁o	-10.0555
eus	-10.0557
▁Russia	-10.0558
ka	-10.0566
▁Pequod	-10.0569
▁Starbuck	-10.0569
▁Thank	-10.0569
▁adjutant	-10.0569
▁smell	-10.0569
▁nice	-10.057
▁stick	-10.0571
fold	-10.0572
▁resolved	-10.0578
ians	-10.058
▁sufficient	-10.0612
ach	-10.0621
▁conscious	-10.0631
▁England	-10.0636
▁Lydia	-10.0636
▁coffin	-10.0636
▁conception	-10.0636
▁genius	-10.0636
▁whence	-10.064
▁emotion	-10.0644
▁arise	-10.0647
▁highest	-10.0652
orn	-10.0653
▁obtain	-10.0657
▁pause	-10.067
▁stairs	-10.0671
▁sur	-10.0674
▁ro	-10.0679
▁demanded	-10.0684
▁sin	-10.0694
▁rate	-10.0704
▁generous	-10.0704
▁unfortunate	-10.0704
▁Daisy	-10.0704
▁truly	-10.0705
▁gray	-10.0705
▁tired	-10.0705
▁rid	-10.0708
▁mountain	-10.0715
▁arranged	-10.0719
▁peasants	-10.0726
she	-10.0731
▁produce	-10.0738
▁pour	-10.0739
LE	-10.0743
▁rapid	-10.0746
▁dared	-10.0752
▁rendered	-10.0754
▁Rome	-10.0767
▁Cavalcanti	-10.0773
▁Which	-10.0773
▁confused	-10.0773
▁consent	-10.0773
▁Woodman	-10.0773
!...	-10.0774
▁worn	-10.0774
▁cries	-10.0778
"	-10.0781
▁explained	-10.0788
▁leaning	-10.0791
▁counts	-10.0795
ture	-10.0795
▁terms	-10.0796
▁sheet	-10.0801
▁continue	-10.0809
▁upper	-10.0809
bra	-10.0815
lv	-10.0816
▁hearts	-10.0816
▁aunt	-10.0826
▁Jo	-10.084
▁injustice	-10.0842
▁wisdom	-10.0842
▁credit	-10.0842
▁frame	-10.0842
▁pack	-10.0843
▁Oz	-10.0851
▁misfortune	-10.0854
▁relation	-10.0857
It	-10.0858
▁deeply	-10.0861
▁fled	-10.0861
▁amount	-10.0862
▁shudder	-10.0864
▁murder	-10.0871
ee	-10.0874
▁directly	-10.0876
▁extreme	-10.0887
ible	-10.0888
rd	-10.0889
▁TO	-10.0898
▁rolled	-10.09
▁stands	-10.0904
▁destroyed	-10.0906
▁moral	-10.0908
▁heat	-10.0909
▁division	-10.0911
▁quarrel	-10.0911
▁queen	-10.0911
▁beam	-10.0914
▁fully	-10.0921
▁drop	-10.0924
▁carrying	-10.0927
▁building	-10.0927
▁support	-10.0934
▁pick	-10.0938
▁wheel	-10.0941
▁lit	-10.0942
ize	-10.0943
▁refuse	-10.0947
bs	-10.0963
ugh	-10.097
▁directed	-10.0978
▁aloud	-10.0981
▁eternal	-10.0981
▁poison	-10.0981
▁Again	-10.0981
▁limit	-10.0981
▁IN	-10.0985
▁pipe	-10.0991
▁useful	-10.0998
▁poet	-10.0998
▁shouting	-10.1001
▁finish	-10.1005
▁Ali	-10.1007
oon	-10.1011
cha	-10.1013
▁deserted	-10.1021
!"	-10.1021
▁h	-10.1029
▁millions	-10.1031
▁Mu	-10.1032
zz	-10.1035
▁Ne	-10.1045
some	-10.1051
▁Arthur	-10.1052
▁vision	-10.1052
▁information	-10.1054
lin	-10.1065
▁boots	-10.1078
aud	-10.108
▁passion	-10.108
▁points	-10.1086
▁pursue	-10.1088
▁oh	-10.1088
▁faith	-10.1097
▁Ph	-10.111
▁brilliant	-10.1123
▁method	-10.1123
▁match	-10.1123
▁animal	-10.1141
▁tonight	-10.1159
▁stronger	-10.1163
▁bid	-10.1184
▁hate	-10.1184
▁writer	-10.1193
▁Alexander	-10.1194
▁column	-10.1194
▁ordinary	-10.1194
▁patient	-10.1194
▁staff	-10.1194
▁weapon	-10.1194
▁muttered	-10.1199
vis	-10.1213
tain	-10.1213
ans	-10.122
▁regarded	-10.1227
▁Car	-10.1236
ered	-10.1236
▁sounds	-10.1239
▁absolute	-10.1242
▁wealth	-10.1253
▁powerful	-10.1256
▁Patroclus	-10.1266
▁image	-10.1266
▁risk	-10.1266
▁importance	-10.1266
▁II	-10.1267
▁sub	-10.1268
▁coward	-10.127
▁III	-10.1285
▁tu	-10.1288
tin	-10.1329
▁mount	-10.133
art	-10.1332
▁travel	-10.1335
▁aspect	-10.1338
▁flank	-10.1338
▁gleam	-10.1338
▁victim	-10.1338
▁gently	-10.1338
▁weather	-10.1338
IS	-10.1342
▁somewhere	-10.1344
▁extended	-10.1358
cle	-10.136
▁wings	-10.1369
▁interesting	-10.1381
▁playing	-10.1382
▁cheeks	-10.1387
▁Jondrette	-10.1411
▁astonishment	-10.1411
▁colonel	-10.1411
▁possibly	-10.1411
▁proportion	-10.1411
▁capital	-10.1411
▁gesture	-10.1411
▁flesh	-10.1411
▁palace	-10.1412
▁insult	-10.1412
▁delighted	-10.1412
▁bench	-10.1412
▁yard	-10.1418
▁gay	-10.1422
ich	-10.1424
▁couple	-10.1426
▁VI	-10.1429
▁l	-10.1436
▁Da	-10.1447
▁prayer	-10.1453
TH	-10.1459
▁hurried	-10.146
AL	-10.1475
▁Ajax	-10.1485
▁George	-10.1485
▁Robin	-10.1485
▁conclusion	-10.1485
▁spoil	-10.1485
▁Indeed	-10.1485
▁bosom	-10.1485
▁traveller	-10.1486
▁furious	-10.1486
▁wholly	-10.1486
▁fruit	-10.1486
▁grey	-10.1486
▁gained	-10.1489
▁angle	-10.1497
▁candle	-10.1501
▁enjoy	-10.1505
▁calls	-10.1518
▁working	-10.1524
▁surely	-10.1535
gi	-10.1555
▁occur	-10.1559
▁kitchen	-10.1559
▁buried	-10.1559
▁hell	-10.1559
stone	-10.1561
▁cool	-10.1565
▁built	-10.1566
▁Su	-10.1573
▁driven	-10.1576
▁lest	-10.1578
▁castle	-10.1579
▁increased	-10.1579
▁mis	-10.1596
▁joined	-10.1597
ins	-10.1598
▁guide	-10.1599
▁creatures	-10.1601
▁Am	-10.1606
▁waters	-10.1612
▁actions	-10.1616
▁porter	-10.1616
▁meat	-10.1616
▁nations	-10.1624
ink	-10.1625
▁council	-10.1634
▁universal	-10.1634
Christopher	-10.1634
▁arose	-10.1634
▁steel	-10.1634
▁knife	-10.1645
▁revenge	-10.1648
▁desired	-10.1657
▁stones	-10.1662
▁qua	-10.1679
val	-10.1695
its	-10.1695
▁den	-10.1698
▁bank	-10.1699
▁handed	-10.1704
▁triumph	-10.1707
▁Professor	-10.1709
▁ROMEO	-10.1709
▁Republic	-10.1709
▁adventure	-10.1709
▁innocent	-10.1709
▁frightful	-10.1716
▁acquainted	-10.1717
uch	-10.173
▁Martians	-10.1736
ham	-10.1737
▁distinguish	-10.1737
▁grasp	-10.1737
▁warrior	-10.1739
▁retired	-10.174
▁hanging	-10.1745
▁pointing	-10.1746
▁struggle	-10.175
▁numbers	-10.1766
▁eating	-10.177
▁kindly	-10.1783
▁correct	-10.1785
▁desperate	-10.1785
▁ghost	-10.1785
▁nail	-10.1785
▁restrain	-10.1785
▁merry	-10.1785
▁During	-10.1785
▁skin	-10.1787
▁minds	-10.1788
▁considerable	-10.1789
▁depths	-10.1805
tan	-10.1807
▁steeds	-10.1828
▁Next	-10.1861
▁enemies	-10.1861
▁staircase	-10.1861
▁prefer	-10.1861
▁coast	-10.1861
▁awful	-10.1863
▁Never	-10.1864
▁cup	-10.1865
▁touching	-10.1871
▁beast	-10.1875
▁kindness	-10.1896
sse	-10.1902
▁separate	-10.1903
▁tale	-10.1907
▁east	-10.1919
▁Mo	-10.1928
▁cabin	-10.1932
▁revolution	-10.1936
▁guests	-10.1937
▁turns	-10.1937
▁instinct	-10.1938
▁straw	-10.1938
▁loose	-10.1938
▁Yu	-10.1939
▁spend	-10.1941
▁pot	-10.1942
▁uncle	-10.1944
▁cost	-10.1953
▁oil	-10.1974
▁played	-10.1993
ug	-10.1996
▁returning	-10.1998
▁campaign	-10.2015
▁confusion	-10.2015
▁destruction	-10.2015
▁tyrant	-10.2015
▁raising	-10.2015
▁Everything	-10.2015
▁Sperm	-10.2015
▁chiefs	-10.2016
▁calling	-10.2017
▁mistress	-10.2022
ttle	-10.2023
▁forces	-10.2028
▁exception	-10.2038
▁signal	-10.2044
▁named	-10.205
▁Har	-10.2059
▁plans	-10.2066
▁conquer	-10.2074
▁naturally	-10.2077
▁Ar	-10.208
▁contain	-10.2083
US	-10.2085
rate	-10.2089
▁weeks	-10.2092
▁Pvlovna	-10.2093
▁altogether	-10.2093
▁consequence	-10.2093
▁forgive	-10.2094
▁reward	-10.2105
▁flash	-10.2117
▁paces	-10.2122
▁employed	-10.2135
▁apartment	-10.2136
▁lion	-10.2136
▁rang	-10.2136
▁mounted	-10.2145
ette	-10.2155
▁gi	-10.2157
▁whisper	-10.216
▁luck	-10.2161
fully	-10.2165
▁Mon	-10.2172
▁Hlne	-10.2172
▁political	-10.2172
▁worst	-10.2172
▁Sometimes	-10.2172
▁guilty	-10.2179
▁bill	-10.2183
▁trans	-10.2191
room	-10.2194
▁sheep	-10.2214
hood	-10.2217
▁contained	-10.222
▁Pe	-10.2222
▁rank	-10.2237
▁marked	-10.2241
▁Lu	-10.2242
▁details	-10.2244
▁anxiety	-10.2252
▁principal	-10.2252
▁flood	-10.2252
▁disposition	-10.2252
▁Long	-10.2253
▁Another	-10.2258
ueen	-10.226
And	-10.2274
▁concerning	-10.2292
ties	-10.2294
▁prepare	-10.2297
▁drag	-10.2325
▁Bertuccio	-10.2332
▁Rabbit	-10.2332
▁Street	-10.2332
▁ignorant	-10.2332
▁sport	-10.2333
▁erect	-10.2333
▁chase	-10.2335
▁capable	-10.2337
▁becoming	-10.2346
▁Bu	-10.2347
▁lover	-10.2349
▁Wu	-10.2351
▁flower	-10.2356
▁bones	-10.2359
▁hurry	-10.2368
▁fleet	-10.2369
▁holy	-10.2378
▁slightly	-10.238
amb	-10.2385
▁Pi	-10.2388
▁relations	-10.2395
▁leading	-10.2411
▁Through	-10.2412
▁astonished	-10.2412
▁sentiment	-10.2412
▁plate	-10.2412
▁gradually	-10.2414
▁store	-10.2417
▁flat	-10.2417
▁Ga	-10.2418
▁flag	-10.2425
▁actually	-10.2426
▁attached	-10.2429
▁humanity	-10.243
▁faithful	-10.2441
▁needed	-10.2443
▁succeed	-10.2446
▁jumped	-10.2449
▁toil	-10.245
▁dim	-10.2462
▁Man	-10.2464
▁gloom	-10.2479
▁assassin	-10.2494
▁stroke	-10.2494
▁surface	-10.2494
▁bodies	-10.2494
▁keen	-10.2494
▁10	-10.2495
▁hideous	-10.2496
▁sell	-10.2497
▁trial	-10.2497
▁chosen	-10.25
ied	-10.25
▁wants	-10.2502
▁attitude	-10.2506
▁companions	-10.2507
▁charm	-10.2511
▁eagerly	-10.2517
▁seeking	-10.2518
ists	-10.2527
▁torn	-10.2536
▁distinct	-10.2538
▁stretched	-10.2551
▁slow	-10.2555
▁Meanwhile	-10.2576
▁Suddenly	-10.2576
▁Would	-10.2576
▁powder	-10.2576
▁satisfaction	-10.2576
▁facts	-10.2576
▁boast	-10.2576
▁swell	-10.2576
▁poetry	-10.2578
▁keeping	-10.258
▁pin	-10.2589
▁mon	-10.2589
▁pile	-10.2591
▁wing	-10.2591
▁pace	-10.2596
▁assumed	-10.2601
▁thanks	-10.2606
▁trembled	-10.2606
▁wit	-10.2608
▁knee	-10.2612
even	-10.263
▁spare	-10.2632
▁mountains	-10.2646
▁Bagratin	-10.2658
▁intelligence	-10.2658
▁pursuit	-10.2658
▁swear	-10.2658
▁wrath	-10.2658
▁Harker	-10.2658
▁flatter	-10.2661
▁description	-10.2661
▁stage	-10.2664
▁Romeo	-10.2669
▁wooden	-10.2672
work	-10.2676
▁Com	-10.2687
▁philosopher	-10.2693
▁reign	-10.2694
▁concerned	-10.2703
ib	-10.2706
▁hence	-10.2706
▁generals	-10.271
▁animals	-10.272
▁term	-10.2724
▁ice	-10.2736
▁labor	-10.274
▁Nevertheless	-10.2741
▁magnificent	-10.2741
▁minister	-10.2741
▁possibility	-10.2741
▁pavement	-10.2741
▁busy	-10.2742
▁solid	-10.2742
ace	-10.2763
▁badly	-10.2771
▁mate	-10.2774
▁recall	-10.2778
▁desert	-10.2779
▁gates	-10.2785
▁retire	-10.2791
▁crying	-10.2795
▁owe	-10.28
▁unexpected	-10.2801
▁Julie	-10.2805
▁pleasures	-10.2806
▁chin	-10.281
▁citizens	-10.2814
▁repeat	-10.2819
ais	-10.2819
▁ChteauRenaud	-10.2826
▁precious	-10.2826
▁committed	-10.2827
▁sentence	-10.2831
▁composed	-10.2834
IT	-10.2836
▁apparently	-10.2839
▁enemys	-10.2839
▁sailors	-10.2844
ets	-10.2847
ration	-10.2849
qua	-10.2851
▁consideration	-10.2856
▁fourth	-10.2858
▁blessed	-10.2859
▁informed	-10.2865
▁belonged	-10.2865
▁sink	-10.2872
▁secure	-10.2875
▁existed	-10.2885
▁features	-10.2894
K	-10.2894
▁accepted	-10.2902
▁shed	-10.2906
▁favour	-10.2907
▁Alptych	-10.291
▁resolution	-10.291
▁vengeance	-10.291
▁safety	-10.2913
▁quit	-10.2913
▁admitted	-10.2914
▁base	-10.2914
AT	-10.2919
▁branches	-10.2919
▁seas	-10.2922
▁rooms	-10.2926
▁season	-10.2926
▁date	-10.2932
▁leaned	-10.2934
▁declared	-10.2944
▁distinguished	-10.2963
▁tent	-10.2972
rin	-10.2972
▁protect	-10.2975
▁exercise	-10.298
▁dreams	-10.2984
▁tower	-10.2984
▁proceeded	-10.2986
▁favor	-10.2993
▁cruel	-10.2994
▁handkerchief	-10.2996
▁obvious	-10.2996
▁consult	-10.2996
▁Nestor	-10.2996
▁contract	-10.2996
▁ashamed	-10.2996
aw	-10.2999
▁General	-10.3003
▁arch	-10.3004
▁waste	-10.3011
▁disorder	-10.3012
ook	-10.3014
▁flames	-10.3014
▁Per	-10.3018
▁pursued	-10.3038
▁merit	-10.304
▁fellows	-10.3045
▁perceive	-10.3047
▁eager	-10.3052
▁pit	-10.3057
▁labour	-10.3059
▁regret	-10.308
▁desires	-10.308
▁cavalry	-10.3082
▁driving	-10.3082
▁material	-10.3082
▁apple	-10.3082
▁Italian	-10.3082
▁sofa	-10.3083
▁trap	-10.3086
ED	-10.3087
pped	-10.3096
▁weary	-10.3101
▁connected	-10.3102
ren	-10.3109
▁apart	-10.3114
int	-10.3133
▁exact	-10.3147
▁Emperors	-10.3149
▁concern	-10.3165
▁Je	-10.3166
▁belief	-10.3169
▁lantern	-10.3169
▁control	-10.3169
▁harpooneer	-10.3169
▁flung	-10.317
▁coachman	-10.3171
▁quitted	-10.3171
▁friendship	-10.3175
▁doubtless	-10.3184
▁Frenchman	-10.3186
▁Baron	-10.3187
▁size	-10.3189
What	-10.3191
▁awake	-10.3194
▁managed	-10.3197
ual	-10.3204
▁test	-10.3204
▁encounter	-10.3209
▁refused	-10.3212
▁glow	-10.3212
▁elder	-10.3232
▁chain	-10.3246
▁branch	-10.3248
▁fi	-10.325
▁drunk	-10.3253
▁silently	-10.3256
▁horizon	-10.3257
▁glancing	-10.3257
▁nervous	-10.3257
▁snatch	-10.3257
▁sank	-10.3257
▁source	-10.3257
▁Three	-10.3257
▁lodge	-10.3257
▁hint	-10.3257
▁excitement	-10.3257
▁bolt	-10.3258
▁portion	-10.3272
▁condemned	-10.3281
ean	-10.3285
use	-10.3287
▁West	-10.3288
▁employ	-10.329
▁treat	-10.3296
▁j	-10.3298
▁younger	-10.3301
▁remaining	-10.3312
▁falls	-10.3314
▁fearful	-10.332
▁infinite	-10.332
▁doom	-10.3321
▁woe	-10.3327
▁sailor	-10.3335
▁Moreover	-10.3345
▁choice	-10.3345
▁baroness	-10.3345
▁wept	-10.3346
▁principles	-10.3348
▁engagement	-10.3349
▁whip	-10.3351
▁masters	-10.3353
gue	-10.3355
▁setting	-10.3362
ga	-10.3362
▁examined	-10.3366
▁hills	-10.3381
▁separated	-10.3385
▁treated	-10.3393
▁cease	-10.34
ening	-10.3401
cri	-10.3417
▁stayed	-10.3419
▁rum	-10.3421
▁stared	-10.3425
▁cases	-10.3428
ove	-10.3429
▁Europe	-10.343
▁Bonaparte	-10.3434
▁cottage	-10.3434
▁uneasy	-10.3434
▁motive	-10.3434
▁sensation	-10.3434
▁mercy	-10.3434
▁Countess	-10.3435
▁clock	-10.3435
▁agony	-10.3437
▁plainly	-10.3449
▁foreign	-10.3452
▁signs	-10.3458
ju	-10.3465
▁hoped	-10.3466
▁affected	-10.3474
▁ne	-10.3498
▁poets	-10.3505
▁rocks	-10.3505
▁reflection	-10.3512
▁furniture	-10.3524
▁ignorance	-10.3524
▁smooth	-10.3524
▁striking	-10.3524
▁milk	-10.3525
▁throne	-10.3525
▁contrast	-10.3526
▁breaking	-10.3531
his	-10.3544
▁breathing	-10.3544
place	-10.355
▁sunk	-10.3552
bound	-10.3553
▁comrades	-10.3556
▁weeping	-10.3567
▁Russians	-10.3577
cus	-10.3591
▁banker	-10.3596
▁rare	-10.3599
▁entreat	-10.3614
▁resist	-10.3615
▁obscure	-10.3615
▁purple	-10.3615
▁curtain	-10.3616
▁foam	-10.3616
▁poem	-10.3617
▁sang	-10.3621
▁Give	-10.3624
▁recollection	-10.3627
▁lesson	-10.3629
▁frequently	-10.3632
▁announced	-10.3637
gar	-10.3659
▁guess	-10.366
jo	-10.3675
ery	-10.3686
▁final	-10.3687
▁rolling	-10.3687
▁Madam	-10.3693
▁More	-10.3694
▁careful	-10.3697
▁convict	-10.3699
hand	-10.3702
▁civil	-10.3702
▁Glaucon	-10.3707
▁comprehend	-10.3707
▁formidable	-10.3707
▁nevertheless	-10.3707
▁suspicion	-10.3707
▁thither	-10.3707
▁mystery	-10.3707
▁porch	-10.3707
▁squadron	-10.3707
▁midnight	-10.3707
▁block	-10.3708
▁firing	-10.3708
▁foolish	-10.371
▁Christian	-10.3711
▁th	-10.3713
▁error	-10.3713
▁string	-10.3713
gre	-10.3716
▁weakness	-10.3717
▁agent	-10.3721
ina	-10.3723
▁vice	-10.3725
▁prey	-10.3745
▁mar	-10.3758
▁hang	-10.3759
this	-10.3764
▁presently	-10.379
UN	-10.3793
ification	-10.3798
▁woods	-10.3798
▁activity	-10.38
▁musket	-10.38
▁violence	-10.38
▁Since	-10.38
▁meantime	-10.3803
▁daylight	-10.3811
▁pig	-10.3812
ille	-10.3814
▁ge	-10.3816
▁buy	-10.382
lay	-10.3821
▁hunger	-10.3831
▁tremble	-10.3859
▁usually	-10.3873
▁weep	-10.3882
▁Hayde	-10.3893
▁inhabitants	-10.3893
▁steward	-10.3893
▁shelter	-10.3893
▁fought	-10.3894
rant	-10.3895
▁Roman	-10.3897
▁remarkable	-10.39
▁pitch	-10.39
▁tide	-10.3901
▁conviction	-10.3901
▁governor	-10.3903
▁arts	-10.3914
▁hit	-10.3923
▁happens	-10.3934
▁whenever	-10.3936
▁abandoned	-10.3937
▁historians	-10.3943
▁follows	-10.3945
▁seize	-10.3954
▁Cl	-10.3955
▁Trojans	-10.3957
▁beard	-10.3966
j	-10.3975
EL	-10.3982
▁Eugnie	-10.3988
▁Waterloo	-10.3988
▁addition	-10.3988
▁appointed	-10.3988
▁breeze	-10.3988
▁diamond	-10.3988
▁feeble	-10.3988
▁intimate	-10.3988
▁physical	-10.3988
▁qualities	-10.3988
▁religion	-10.3988
▁oath	-10.3988
▁assistance	-10.3989
▁Italy	-10.399
▁stout	-10.3991
▁cave	-10.3996
▁vanished	-10.4018
But	-10.4023
▁previously	-10.4024
▁color	-10.4036
▁wearing	-10.4055
ov	-10.4062
▁handle	-10.4068
▁sole	-10.4074
▁figures	-10.4081
▁August	-10.4083
▁Nantucket	-10.4083
▁javelin	-10.4083
▁preceding	-10.4083
▁upstairs	-10.4083
▁About	-10.4083
▁nodded	-10.4083
▁moreover	-10.4083
▁taught	-10.4084
▁dragged	-10.4084
what	-10.4084
▁trade	-10.4084
▁profession	-10.4088
▁hungry	-10.4089
▁Old	-10.409
▁concluded	-10.4093
▁armies	-10.4095
▁manners	-10.4096
▁seal	-10.4098
▁ended	-10.4099
cal	-10.4103
▁ga	-10.4118
▁youll	-10.414
▁reasons	-10.4152
▁formerly	-10.4154
▁pal	-10.4156
▁burned	-10.4156
▁soil	-10.4157
iness	-10.4161
▁failed	-10.4163
itch	-10.4168
▁alarmed	-10.4169
▁maids	-10.417
▁bears	-10.4174
▁Mikhylovna	-10.4179
▁drank	-10.4179
▁anguish	-10.4179
▁silk	-10.4179
▁debt	-10.4179
▁odd	-10.418
▁mood	-10.4181
▁agreeable	-10.4184
▁interests	-10.4184
▁comment	-10.4186
▁thoroughly	-10.4187
day	-10.4193
▁attain	-10.4194
▁forever	-10.4203
don	-10.4204
right	-10.4213
▁vo	-10.4217
▁pr	-10.4217
▁armed	-10.422
▁fired	-10.4223
▁tin	-10.4227
▁lack	-10.424
▁Soon	-10.4246
▁sold	-10.4246
▁wheels	-10.4257
▁worked	-10.4261
▁Mars	-10.4267
▁bourgeois	-10.4276
▁practice	-10.4276
▁clerk	-10.4276
▁Listen	-10.4276
▁Ex	-10.4276
▁feels	-10.4276
▁Uncle	-10.4277
▁price	-10.4277
▁objects	-10.4277
▁assist	-10.4279
▁purse	-10.4282
▁bend	-10.4287
▁teach	-10.4287
ium	-10.4291
You	-10.4295
▁related	-10.4303
rag	-10.4306
▁Vi	-10.4312
▁rulers	-10.4315
▁reflected	-10.4317
▁bringing	-10.4318
▁ascend	-10.4327
ore	-10.4339
▁Mi	-10.434
▁wounds	-10.4356
▁commands	-10.4358
▁yards	-10.4366
▁neighbour	-10.4374
▁SaintMran	-10.4374
▁accent	-10.4374
▁squire	-10.4374
▁grateful	-10.4374
▁bride	-10.4374
▁Che	-10.4375
▁Witch	-10.4376
▁guest	-10.4376
▁trick	-10.4376
▁circumstance	-10.4376
▁shone	-10.4376
▁absorbed	-10.4383
▁presents	-10.4389
▁lament	-10.4392
▁fears	-10.4396
sha	-10.4398
▁breathe	-10.4409
▁maintain	-10.4427
▁neighbor	-10.4428
▁amongst	-10.4429
▁describe	-10.4441
▁trace	-10.4441
▁wip	-10.4452
cing	-10.4461
▁expecting	-10.4468
▁addressing	-10.4471
▁Colonel	-10.4473
▁dignity	-10.4473
▁popular	-10.4473
▁radiant	-10.4473
▁reckon	-10.4473
▁slaughter	-10.4473
▁survey	-10.4473
▁Mrya	-10.4473
▁East	-10.4473
▁idle	-10.4476
▁peer	-10.448
▁inclined	-10.4484
▁stir	-10.4484
▁Poor	-10.449
▁Him	-10.4491
▁cow	-10.4496
▁Abb	-10.45
▁wet	-10.4511
▁hastened	-10.4513
▁belong	-10.4516
▁movements	-10.4519
▁Hence	-10.4537
hy	-10.4538
▁fur	-10.4568
▁helm	-10.4569
▁Marseilles	-10.4573
▁White	-10.4573
▁unpleasant	-10.4573
▁mask	-10.4573
▁duties	-10.4574
▁south	-10.4575
▁fro	-10.4581
▁Till	-10.4582
▁pierced	-10.4583
▁limbs	-10.4586
▁fastened	-10.4594
▁mast	-10.4596
▁Tin	-10.4613
,000	-10.4619
▁inform	-10.4624
▁murmur	-10.4627
▁X	-10.4627
▁loudly	-10.4633
looking	-10.4639
head	-10.4654
▁deed	-10.4655
▁winds	-10.4662
▁remarks	-10.4662
▁major	-10.4671
▁permit	-10.4672
ony	-10.4674
▁Apollo	-10.4674
▁JULIET	-10.4674
▁Rostopchn	-10.4674
▁September	-10.4674
▁endeavor	-10.4674
▁fortunate	-10.4674
▁throng	-10.4674
▁shaking	-10.4674
▁utmost	-10.4674
▁check	-10.4674
elle	-10.4674
▁loving	-10.4674
▁chapter	-10.4676
▁scale	-10.4678
▁Gods	-10.4679
▁Guards	-10.4687
▁stock	-10.4689
▁eaten	-10.4689
▁super	-10.4695
▁begins	-10.4702
02	-10.4709
▁Has	-10.472
▁sooner	-10.472
?...	-10.4725
eer	-10.4726
sail	-10.4726
▁conditions	-10.4728
▁abandon	-10.4729
▁guardians	-10.4736
▁complain	-10.4741
▁brains	-10.4741
No	-10.4752
liness	-10.4758
▁won	-10.4761
▁Tra	-10.4762
▁causes	-10.4763
▁wave	-10.477
▁glimpse	-10.4776
▁receiving	-10.4776
▁resound	-10.4776
▁shepherd	-10.4776
▁vehicle	-10.4776
▁strict	-10.4776
▁involuntarily	-10.4776
▁fatigue	-10.4776
▁Little	-10.4777
▁mild	-10.4777
▁bedroom	-10.478
▁Island	-10.4782
ency	-10.4782
▁element	-10.4785
▁detail	-10.4786
▁devoted	-10.4786
▁11	-10.4795
▁dam	-10.4797
▁shouts	-10.4803
▁Sc	-10.4807
▁miss	-10.4812
▁leader	-10.4813
▁hid	-10.4813
▁halted	-10.482
▁El	-10.4825
▁heavenly	-10.4829
▁cab	-10.4833
ias	-10.4833
▁jump	-10.4833
▁softly	-10.4839
▁bestow	-10.4844
▁closely	-10.4845
▁cheer	-10.4846
▁oars	-10.4848
▁rushing	-10.4848
▁clam	-10.4852
▁recollect	-10.4866
▁west	-10.4873
▁advancing	-10.4879
▁beloved	-10.4879
▁cunning	-10.4879
▁glorious	-10.4879
▁gratitude	-10.4879
▁inferior	-10.4879
▁merchant	-10.4879
▁blows	-10.4881
▁fever	-10.4882
▁lift	-10.4894
▁exhausted	-10.4897
▁Pierres	-10.4907
▁mode	-10.4912
▁helped	-10.4918
▁hussars	-10.4919
▁pole	-10.492
▁crush	-10.4936
▁ride	-10.4937
▁Far	-10.4945
▁sous	-10.4957
▁visitors	-10.4957
▁earnest	-10.4962
▁locked	-10.4968
ger	-10.4969
▁linen	-10.4973
bro	-10.4978
▁Tis	-10.4982
▁forgot	-10.4983
▁harpoon	-10.4983
▁armchair	-10.4983
▁awkward	-10.4983
▁brief	-10.4983
▁corridor	-10.4983
▁destiny	-10.4983
▁heavily	-10.4983
▁nonsense	-10.4983
▁extent	-10.4983
▁awoke	-10.4983
▁region	-10.4983
▁track	-10.4984
▁stiff	-10.4985
▁hut	-10.4986
▁torch	-10.499
▁nation	-10.4992
▁consciousness	-10.4992
▁plunged	-10.4997
▁cock	-10.5001
▁crossing	-10.5003
▁distinctly	-10.5015
port	-10.5019
▁strangers	-10.5025
▁crack	-10.5041
▁prayers	-10.5061
ui	-10.5074
▁thirst	-10.5075
most	-10.5081
▁Dmtrievna	-10.5089
▁angrily	-10.5089
▁dancing	-10.5089
▁delicate	-10.5089
▁disgrace	-10.5089
▁battalion	-10.5089
▁magistrate	-10.5089
▁disease	-10.5089
▁harmony	-10.5089
▁bought	-10.509
▁hostile	-10.5091
▁gown	-10.5097
▁peril	-10.5098
▁pronounced	-10.5103
▁fix	-10.5115
▁beating	-10.5115
can	-10.5117
▁deceived	-10.5121
my	-10.5124
▁fo	-10.5129
hole	-10.5139
▁win	-10.5157
▁obtained	-10.5162
▁sadly	-10.5176
▁dig	-10.5183
▁murderer	-10.5184
▁throwing	-10.5188
▁imagined	-10.519
▁basket	-10.5195
▁whirl	-10.5195
▁Bourienne	-10.5195
▁Eeyore	-10.5195
▁Leblanc	-10.5195
▁admiration	-10.5195
▁numerous	-10.5195
▁precaution	-10.5195
▁unusual	-10.5195
▁whaling	-10.5195
▁problem	-10.5195
ically	-10.5196
▁drawingroom	-10.5196
▁observation	-10.5197
▁inspector	-10.5199
▁hatred	-10.5199
▁nobody	-10.52
glo	-10.5207
▁precisely	-10.5209
▁considering	-10.521
▁mournful	-10.5215
▁brown	-10.5217
▁Hans	-10.5222
▁chi	-10.5231
▁affect	-10.5245
▁consist	-10.5254
▁flee	-10.5254
▁afford	-10.5255
▁deliver	-10.5255
▁perish	-10.526
▁wishing	-10.5261
▁larger	-10.5281
▁Fa	-10.5282
leg	-10.5283
▁20	-10.5284
▁tranquil	-10.5303
▁June	-10.5303
▁Mamma	-10.5303
▁agitated	-10.5303
▁majesty	-10.5303
▁galleys	-10.5303
▁stories	-10.5303
▁kingdom	-10.5303
▁dozen	-10.5303
▁thread	-10.5303
▁torture	-10.5303
▁Sunday	-10.5303
▁XXI	-10.5304
▁verse	-10.5305
12	-10.5309
bed	-10.5333
▁sufficiently	-10.5342
with	-10.5345
▁manage	-10.5348
▁bath	-10.536
▁needs	-10.5362
hal	-10.5368
▁preserve	-10.5377
▁poured	-10.5377
▁feed	-10.5385
▁vol	-10.5392
▁Ithaca	-10.5411
▁Majesty	-10.5411
▁dAvrigny	-10.5411
▁fancied	-10.5411
▁steam	-10.5411
▁Seward	-10.5413
▁Faria	-10.5414
▁crowded	-10.5415
▁Dick	-10.5416
▁Men	-10.5429
▁accomplished	-10.5432
▁introduced	-10.5433
▁War	-10.544
▁alas	-10.5443
▁galloped	-10.5444
▁knocked	-10.5451
how	-10.5454
▁disturbed	-10.5455
▁inner	-10.546
▁fun	-10.5467
▁bag	-10.5475
gy	-10.5475
▁recover	-10.5476
▁halt	-10.5477
▁assume	-10.5487
▁suite	-10.5488
▁corn	-10.549
ah	-10.5499
ST	-10.5502
▁staring	-10.5503
▁title	-10.5506
▁insist	-10.5518
▁artillery	-10.5519
▁coach	-10.5521
▁agitation	-10.5521
▁burden	-10.5521
▁criminal	-10.5521
▁record	-10.5521
▁whistle	-10.5521
▁craft	-10.5521
▁funeral	-10.5521
▁invisible	-10.5521
▁summit	-10.5521
▁Arm	-10.5522
▁giant	-10.5524
▁cellar	-10.5528
▁Nay	-10.5534
was	-10.5537
ET	-10.554
▁Di	-10.554
▁gift	-10.5548
▁objection	-10.5549
▁delightful	-10.5553
▁restored	-10.5553
▁loaded	-10.5563
▁notion	-10.5579
▁reflect	-10.5581
bel	-10.5581
▁recalled	-10.5583
▁perform	-10.5584
▁warriors	-10.5588
▁quiver	-10.5589
ome	-10.5594
▁12	-10.5605
▁drops	-10.561
▁showing	-10.5613
▁endure	-10.5614
▁friendly	-10.5617
▁victor	-10.5618
▁tied	-10.5623
▁CAPULET	-10.5632
▁Flask	-10.5632
▁Neither	-10.5632
▁Penelope	-10.5632
▁accompany	-10.5632
▁boulevard	-10.5632
▁defeat	-10.5632
▁encourage	-10.5632
▁judgment	-10.5632
▁meadow	-10.5632
▁recommend	-10.5632
▁relative	-10.5632
▁solitary	-10.5632
▁eleven	-10.5632
▁characteristic	-10.5632
▁valet	-10.5636
▁overcome	-10.5637
▁works	-10.5637
▁page	-10.5646
▁ashes	-10.5646
▁troubled	-10.5647
▁Dear	-10.5648
▁sorts	-10.5655
▁Say	-10.5661
▁divided	-10.5662
▁artist	-10.5663
▁rested	-10.5665
▁meal	-10.5669
▁suggested	-10.567
▁backward	-10.567
▁deadly	-10.5686
fl	-10.5692
▁Roo	-10.5692
▁display	-10.5697
▁philosophers	-10.5697
Oh	-10.5705
len	-10.5739
▁Balashv	-10.5745
▁Gardiner	-10.5745
▁Menelaus	-10.5745
▁sweep	-10.5745
▁official	-10.5745
▁steep	-10.5745
▁queer	-10.5745
▁cord	-10.5746
▁infantry	-10.5747
▁spout	-10.5747
▁punishment	-10.5748
▁active	-10.5754
▁organ	-10.5759
▁proposed	-10.577
▁intervals	-10.577
▁elbow	-10.5775
▁youre	-10.578
▁13	-10.5784
▁arrested	-10.5789
▁Cor	-10.5794
▁visitor	-10.5797
▁efforts	-10.5803
▁quarters	-10.5804
▁peoples	-10.5808
▁graceful	-10.5813
▁pains	-10.5815
▁parted	-10.582
▁goodness	-10.5826
▁mat	-10.5829
▁shake	-10.5838
▁boys	-10.5844
▁process	-10.5849
▁exists	-10.5852
▁cell	-10.5853
▁Borodin	-10.5858
▁absent	-10.5858
▁ridiculous	-10.5858
▁sympathy	-10.5858
▁whilst	-10.5858
▁courtyard	-10.5858
▁shriek	-10.5858
▁honey	-10.5858
▁appeal	-10.5858
▁anybody	-10.5861
▁repose	-10.5861
dding	-10.5863
▁partner	-10.5866
▁imm	-10.5867
▁mental	-10.5869
▁earn	-10.587
▁coursers	-10.5872
▁invited	-10.5876
part	-10.5881
▁urged	-10.5886
▁borne	-10.5887
pot	-10.5892
▁million	-10.5895
▁jaw	-10.5896
▁XVIII	-10.5902
▁thine	-10.5906
▁peaceful	-10.591
▁honours	-10.5917
line	-10.5919
eth	-10.5923
▁drinking	-10.5927
In	-10.5947
▁constant	-10.5949
▁Hsi	-10.5953
▁attacked	-10.5963
▁Fl	-10.5969
▁profit	-10.5971
▁medicine	-10.5973
▁permission	-10.5973
▁phrase	-10.5973
▁terrified	-10.5973
▁vault	-10.5973
▁reverie	-10.5973
▁Berg	-10.5973
▁pear	-10.5973
▁humble	-10.5974
▁marble	-10.5974
▁oak	-10.5975
▁Peter	-10.5977
▁etc	-10.5981
▁armour	-10.5981
▁offering	-10.5983
wo	-10.5984
▁vow	-10.5984
▁occasionally	-10.5985
▁shades	-10.5987
▁Ti	-10.5989
▁Par	-10.5997
▁masses	-10.5998
▁painted	-10.6001
▁owner	-10.6004
▁subjects	-10.6012
well	-10.6014
▁Mor	-10.6023
which	-10.6024
cap	-10.6024
▁Ben	-10.6053
▁plant	-10.6054
▁resemble	-10.6055
▁settle	-10.6056
wn	-10.6074
▁definite	-10.6089
▁Agamemnon	-10.6089
▁Revolution	-10.6089
▁epoch	-10.6089
▁instrument	-10.6089
▁manifest	-10.6089
▁sentinel	-10.609
▁slipped	-10.609
▁begged	-10.6091
▁undertake	-10.6092
▁Chang	-10.6092
▁abruptly	-10.61
▁sails	-10.6106
▁constantly	-10.6114
▁nearest	-10.6126
▁Napoleons	-10.6128
▁cheek	-10.6129
▁bless	-10.6131
▁VIII	-10.6153
▁spy	-10.6153
wing	-10.6156
▁vessels	-10.616
▁wouldnt	-10.616
▁commanded	-10.6166
▁candles	-10.6182
▁pretend	-10.6197
inlaw	-10.6207
Co	-10.6207
▁Black	-10.6207
▁energy	-10.6207
▁indifferent	-10.6207
▁probable	-10.6207
▁quality	-10.6207
▁swept	-10.6207
▁text	-10.6207
▁devour	-10.6207
▁sombre	-10.6207
▁patron	-10.6207
▁costume	-10.6207
▁sperm	-10.6207
▁hurl	-10.6207
▁South	-10.6208
▁couch	-10.621
▁commission	-10.6215
▁hunt	-10.6218
▁chill	-10.6218
▁throughout	-10.622
▁dressing	-10.6234
▁bandit	-10.6237
▁Helen	-10.6239
▁bows	-10.6241
▁Se	-10.6245
▁thoughtful	-10.6246
▁Ye	-10.6249
▁incident	-10.6269
▁disturb	-10.6278
▁furnish	-10.6279
▁arrest	-10.6279
▁whereas	-10.6282
▁aged	-10.6282
▁riding	-10.6284
▁admire	-10.6291
▁restore	-10.6297
▁mud	-10.6298
▁completed	-10.63
▁sighed	-10.6309
▁Na	-10.6314
▁starting	-10.6314
▁partly	-10.6318
▁resign	-10.6323
▁tumult	-10.6326
▁Iliad	-10.6326
▁Jim	-10.6326
▁eldest	-10.6326
▁impulse	-10.6326
▁indifference	-10.6326
▁plenty	-10.6326
▁sustain	-10.6326
▁system	-10.6326
▁inquiries	-10.6326
▁solitude	-10.6326
▁abode	-10.6326
▁persist	-10.6326
▁joke	-10.6326
▁trunk	-10.6326
▁salt	-10.6328
▁creation	-10.6328
▁Enter	-10.6329
▁Ilion	-10.6331
▁animated	-10.6333
▁list	-10.6341
▁indicated	-10.6346
▁pine	-10.635
▁attracted	-10.6357
bre	-10.6359
▁origin	-10.6379
▁bestowed	-10.6381
▁mayor	-10.6387
ois	-10.639
▁ahead	-10.6396
▁convey	-10.6399
▁notes	-10.6401
▁seriously	-10.6406
▁ate	-10.6408
▁shuddered	-10.6408
▁interested	-10.6411
▁embrace	-10.6412
tag	-10.6416
▁Te	-10.642
SE	-10.6423
▁Bar	-10.643
▁chose	-10.6437
▁carts	-10.6441
▁cloister	-10.6447
▁fragment	-10.6447
▁generation	-10.6447
▁naked	-10.6447
▁pillow	-10.6447
▁preparation	-10.6447
▁sublime	-10.6447
▁harsh	-10.6447
▁relief	-10.6447
▁applied	-10.6447
▁tight	-10.6447
▁remote	-10.6447
▁prompt	-10.6447
▁beggar	-10.6448
▁permitted	-10.6449
▁natures	-10.6451
▁sixty	-10.6452
▁historical	-10.6455
▁shows	-10.6464
▁provided	-10.6475
▁coin	-10.6483
▁preserved	-10.6485
▁hurriedly	-10.6487
▁furnished	-10.6495
aux	-10.6497
▁VII	-10.6498
▁guardian	-10.6501
▁firmly	-10.6501
▁habits	-10.6503
▁chiefly	-10.6508
▁Both	-10.6517
▁disappear	-10.652
▁bat	-10.6525
▁pur	-10.6526
▁attended	-10.6544
▁ja	-10.6546
▁alter	-10.6547
▁slid	-10.6553
▁July	-10.6569
▁multitude	-10.6569
▁prospect	-10.6569
▁refrain	-10.6569
▁sensible	-10.6569
▁substance	-10.6569
▁trousers	-10.6569
▁knot	-10.6569
▁daring	-10.6569
▁folded	-10.6569
▁hitherto	-10.657
bility	-10.6571
▁root	-10.6571
▁declare	-10.6571
▁steer	-10.6572
▁readily	-10.6574
▁jest	-10.6579
▁cutting	-10.658
▁baron	-10.659
▁helpless	-10.6593
▁glittering	-10.66
▁await	-10.66
▁compared	-10.6602
▁bands	-10.6607
▁deny	-10.6609
▁bowl	-10.6614
▁recovered	-10.6621
▁hasten	-10.6622
▁princes	-10.6623
▁outer	-10.6631
aries	-10.6638
▁suspect	-10.6645
X	-10.6646
bar	-10.665
▁lovers	-10.6651
▁sorrows	-10.6657
▁deserve	-10.6657
▁relate	-10.6658
▁descending	-10.6665
▁north	-10.6666
▁log	-10.6677
▁ruined	-10.6685
▁load	-10.6688
▁Smolnsk	-10.6692
▁amazement	-10.6692
▁monsieur	-10.6692
▁Sherlock	-10.6692
▁coarse	-10.6692
▁slope	-10.6692
▁altar	-10.6692
▁Aye	-10.6693
▁ladder	-10.6694
▁losing	-10.6694
▁household	-10.6696
▁attendant	-10.6697
▁Without	-10.6697
▁axe	-10.6699
▁anywhere	-10.6699
▁Austrian	-10.6699
mount	-10.6717
▁vent	-10.6722
▁scattered	-10.6723
▁balls	-10.6726
▁gore	-10.6728
RO	-10.6728
DE	-10.6731
▁letting	-10.6731
▁expectation	-10.6731
▁extremely	-10.6736
▁views	-10.6737
▁rays	-10.674
▁gas	-10.6744
▁members	-10.6747
▁crushed	-10.6748
▁husbands	-10.6755
▁Eu	-10.6758
smith	-10.6761
set	-10.6761
aire	-10.6763
licit	-10.6768
▁climb	-10.677
▁welcome	-10.6782
▁acknowledge	-10.6782
▁increase	-10.6783
▁visited	-10.6788
▁highly	-10.6789
▁timid	-10.6793
▁IX	-10.6796
▁proceeding	-10.6796
▁prayed	-10.6808
▁anchor	-10.6816
▁indulge	-10.6816
atch	-10.6816
▁Wilson	-10.6817
▁assembled	-10.6817
▁compliment	-10.6817
▁evidence	-10.6817
▁exclamation	-10.6817
▁messenger	-10.6817
▁refuge	-10.6817
▁valiant	-10.6817
▁conflict	-10.6817
▁message	-10.6817
▁abyss	-10.6817
▁bond	-10.6819
▁rags	-10.6819
▁Upon	-10.6819
table	-10.6821
▁flock	-10.6822
▁discussion	-10.6826
keeper	-10.6827
▁intend	-10.6827
▁disposed	-10.6829
▁established	-10.683
01	-10.6831
▁deeds	-10.6837
▁press	-10.6842
▁virtues	-10.6849
▁reaching	-10.6854
▁summoned	-10.6855
▁City	-10.6855
▁fr	-10.6868
▁consisted	-10.6872
▁ascended	-10.6878
ides	-10.688
▁Pre	-10.6887
ley	-10.6895
▁accord	-10.6898
▁bark	-10.69
▁notary	-10.6904
▁purchase	-10.6909
dict	-10.6913
▁gifts	-10.6914
▁misfortunes	-10.6921
▁sailed	-10.6929
▁infant	-10.6942
▁Chinese	-10.6944
▁assurance	-10.6944
▁carpenter	-10.6944
▁twilight	-10.6944
▁audible	-10.6944
▁abroad	-10.6944
▁hoarse	-10.6944
▁barrier	-10.6944
▁article	-10.6944
▁operation	-10.6944
▁series	-10.6945
▁fox	-10.6945
▁Priam	-10.6945
▁Pray	-10.6946
▁Really	-10.6947
▁affectionate	-10.6949
ppe	-10.6953
▁acquired	-10.6956
▁celebrated	-10.6958
▁Whose	-10.6959
▁executed	-10.6966
▁reasonable	-10.6966
▁fairly	-10.6974
▁cla	-10.6976
vin	-10.6978
▁outline	-10.6979
fu	-10.6983
there	-10.6986
▁leads	-10.6993
▁performed	-10.6998
▁insisted	-10.6998
▁dwell	-10.7029
tus	-10.7035
▁divide	-10.7037
▁inquire	-10.7037
▁persuade	-10.7041
▁unre	-10.7043
under	-10.7053
are	-10.7063
▁obeyed	-10.7064
▁Christ	-10.7066
▁Providence	-10.7072
▁Tsao	-10.7072
▁Vampa	-10.7072
▁dispute	-10.7072
▁landlord	-10.7072
▁martial	-10.7072
▁situated	-10.7072
▁supreme	-10.7072
▁Atrides	-10.7072
▁defence	-10.7072
▁amiable	-10.7072
▁wives	-10.7072
▁fiery	-10.7072
▁Kung	-10.7075
izing	-10.7075
▁translation	-10.7078
▁Grand	-10.708
▁rat	-10.708
▁breathless	-10.7082
▁unlike	-10.709
▁couldnt	-10.7091
▁distinction	-10.7092
rid	-10.7097
▁captured	-10.7099
▁leap	-10.711
▁don	-10.7124
▁dearest	-10.7127
▁ob	-10.7142
rri	-10.7145
▁plum	-10.7171
▁Were	-10.7171
▁theory	-10.7174
▁Does	-10.7178
▁tempt	-10.7183
get	-10.7185
▁trip	-10.7186
▁hospital	-10.7198
tree	-10.7201
▁Jonah	-10.7202
▁celestial	-10.7202
▁comparison	-10.7202
▁decision	-10.7202
▁distract	-10.7202
▁external	-10.7202
▁invitation	-10.7202
▁machine	-10.7202
▁mirror	-10.7202
▁valley	-10.7202
▁steady	-10.7202
▁scrap	-10.7202
▁elsewhere	-10.7203
▁mouse	-10.7203
who	-10.7205
▁ample	-10.7205
▁triumphant	-10.7205
▁talent	-10.7206
▁Englishman	-10.7209
▁carriages	-10.7209
▁sounding	-10.7211
▁tenderness	-10.7213
▁traversed	-10.7214
▁tis	-10.7214
▁madness	-10.7222
▁panting	-10.7229
▁30	-10.7232
▁Pan	-10.7239
▁States	-10.7239
▁sounded	-10.724
▁knock	-10.7242
▁damp	-10.7244
ird	-10.725
▁Ni	-10.7257
ENT	-10.7258
RI	-10.7272
▁retain	-10.7292
hu	-10.7302
q	-10.7305
rous	-10.7324
▁counter	-10.7328
▁elegant	-10.7333
▁Lizzy	-10.7333
▁brazen	-10.7333
▁devotion	-10.7333
▁esteem	-10.7333
▁families	-10.7333
▁footsteps	-10.7333
▁intelligent	-10.7333
▁occupation	-10.7333
▁proposal	-10.7333
▁sixteen	-10.7333
▁destined	-10.7333
▁contented	-10.7333
▁civilization	-10.7333
▁compelled	-10.7334
▁meanwhile	-10.7335
ouch	-10.7337
▁passionate	-10.7337
▁sex	-10.7338
▁paw	-10.7339
▁sack	-10.7341
▁shine	-10.7342
▁detain	-10.7346
▁partial	-10.7348
▁lash	-10.7358
▁...	-10.7359
▁discovery	-10.736
32	-10.7363
▁Bear	-10.7364
▁risen	-10.7372
▁toils	-10.7375
▁pull	-10.7377
▁Toto	-10.7377
▁awaiting	-10.7381
▁inspired	-10.7395
▁driver	-10.7409
▁collect	-10.7411
they	-10.7424
▁decide	-10.7432
▁card	-10.7442
night	-10.7448
▁heaps	-10.7457
▁withdraw	-10.7457
▁Ja	-10.7462
post	-10.7464
▁Mabeuf	-10.7467
▁Pontmercy	-10.7467
▁despise	-10.7467
▁scheme	-10.7467
▁stomach	-10.7467
▁threshold	-10.7467
▁collar	-10.7467
▁rude	-10.7467
▁Therefore	-10.7467
▁salute	-10.7467
▁carpet	-10.7467
▁tar	-10.7468
▁Right	-10.7471
▁comfortable	-10.7473
▁En	-10.7473
▁alike	-10.7474
▁market	-10.7476
▁spectacles	-10.7479
▁tailor	-10.7485
▁March	-10.7486
▁youthful	-10.7489
▁flushed	-10.7489
▁realized	-10.7496
▁cleared	-10.7504
▁embraced	-10.7505
▁mixed	-10.7505
▁created	-10.7506
▁resembled	-10.7506
▁dashed	-10.7509
▁collected	-10.7514
▁pressing	-10.7514
▁violently	-10.7518
▁bending	-10.7528
00,000	-10.7531
pose	-10.7532
▁doll	-10.7536
▁member	-10.7542
▁Ten	-10.7549
▁entertain	-10.7551
▁remind	-10.7554
▁confine	-10.7567
▁individuals	-10.7569
▁calmly	-10.7577
▁Any	-10.7586
▁Bezkhov	-10.7602
▁Odyssey	-10.7602
▁conquest	-10.7602
▁cylinder	-10.7602
▁folk	-10.7602
▁monstrous	-10.7602
▁politics	-10.7602
▁sleeve	-10.7602
▁smoking	-10.7602
▁tempest	-10.7602
▁ceiling	-10.7602
▁hesitation	-10.7602
▁jailer	-10.7602
▁ponine	-10.7602
▁unwilling	-10.7602
▁folly	-10.7602
▁brass	-10.7602
▁decree	-10.7602
▁cavern	-10.7602
▁steal	-10.7602
▁blew	-10.7602
▁transport	-10.7602
▁moonlight	-10.7603
▁horn	-10.7603
▁prevented	-10.7604
▁godlike	-10.7605
▁learning	-10.7608
▁Most	-10.7612
▁Four	-10.7612
▁bull	-10.7613
▁results	-10.762
▁Five	-10.7624
ads	-10.7627
▁strongly	-10.7628
▁parties	-10.7634
▁departed	-10.7643
▁Gregors	-10.7659
▁noon	-10.7667
▁represent	-10.7674
▁lightly	-10.7677
▁senses	-10.7686
iest	-10.7687
▁danced	-10.7689
▁instructions	-10.7689
bri	-10.7698
30	-10.7703
▁execution	-10.7703
▁frequent	-10.7714
▁signed	-10.7718
▁Youre	-10.7721
▁Austerlitz	-10.7739
▁Emmanuel	-10.7739
▁NURSE	-10.7739
▁absurd	-10.7739
▁disguise	-10.7739
▁enthusiasm	-10.7739
▁leather	-10.7739
▁reputation	-10.7739
▁stuck	-10.7739
▁apply	-10.7739
▁dirty	-10.7739
▁replies	-10.7739
▁kick	-10.7739
▁cask	-10.7739
▁rosy	-10.7739
▁wax	-10.774
▁baby	-10.7741
▁childhood	-10.7744
▁dislike	-10.7744
▁lane	-10.7758
▁emerged	-10.7767
▁ventured	-10.777
▁fist	-10.7772
▁Sw	-10.7772
▁border	-10.7774
▁illness	-10.7775
If	-10.7787
▁safely	-10.7812
0,000	-10.7818
own	-10.7821
uce	-10.7822
▁ages	-10.7836
eau	-10.7844
▁impatient	-10.7853
▁actual	-10.7855
▁belongs	-10.7873
▁Thr	-10.7873
▁tramp	-10.7876
▁Combeferre	-10.7878
▁Neptune	-10.7878
▁Peppino	-10.7878
▁battery	-10.7878
▁benefit	-10.7878
▁piercing	-10.7878
▁preparing	-10.7878
▁reverend	-10.7878
▁serfs	-10.7878
▁species	-10.7878
▁wolves	-10.7878
▁Several	-10.7878
▁current	-10.7878
▁practical	-10.7878
▁hammer	-10.7878
▁strip	-10.7878
▁ornament	-10.7878
▁president	-10.7878
▁hotel	-10.7883
▁Sch	-10.7884
▁headlong	-10.7884
▁marshal	-10.7887
iff	-10.7889
▁hesitated	-10.7895
▁behave	-10.7903
▁Many	-10.7904
▁dire	-10.7906
▁boxes	-10.7913
▁Cossack	-10.7937
▁rein	-10.7944
▁passes	-10.7949
lock	-10.7952
▁particulars	-10.7952
▁suggest	-10.7958
▁hussar	-10.7964
▁grasped	-10.7965
▁wash	-10.7966
▁exchange	-10.7984
open	-10.7991
▁beasts	-10.7994
▁urge	-10.7996
▁gardener	-10.7998
▁North	-10.8
▁dpinay	-10.8018
▁dwarf	-10.8018
▁fifth	-10.8018
▁gigantic	-10.8018
▁physician	-10.8018
▁quantity	-10.8018
▁uncertain	-10.8018
▁bodily	-10.8018
▁Among	-10.8018
▁studied	-10.8019
▁magic	-10.8019
▁favorite	-10.8019
▁grating	-10.8022
▁pool	-10.8024
stead	-10.8028
▁illuminated	-10.8034
read	-10.8035
long	-10.8035
vel	-10.8043
▁overwhelmed	-10.8046
▁maiden	-10.8047
▁united	-10.8047
We	-10.8054
▁revealed	-10.8059
▁ray	-10.806
look	-10.8061
▁anxiously	-10.8079
▁ban	-10.8094
▁encountered	-10.8095
▁Martian	-10.8109
headed	-10.8111
▁select	-10.8114
▁Eh	-10.8116
ray	-10.8117
ipped	-10.8124
▁inspire	-10.8127
▁advise	-10.8127
tho	-10.8132
Yes	-10.8133
▁leagues	-10.8137
▁bloody	-10.8137
▁ruler	-10.8141
▁commit	-10.8159
▁leaders	-10.816
▁hither	-10.816
▁Godalming	-10.8161
▁October	-10.8161
▁Swift	-10.8161
▁Watson	-10.8161
▁domestic	-10.8161
▁dungeon	-10.8161
▁female	-10.8161
▁gymnastic	-10.8161
▁library	-10.8161
▁majestic	-10.8161
▁phantom	-10.8161
▁religious	-10.8161
▁remorse	-10.8161
▁repair	-10.8161
▁sergeant	-10.8161
▁significance	-10.8161
▁tragic	-10.8161
▁club	-10.8161
▁echo	-10.8161
▁Baker	-10.8161
▁tolerably	-10.8161
▁Something	-10.8161
▁intense	-10.8161
▁reverse	-10.8162
▁despite	-10.8162
▁Owl	-10.8162
▁gracious	-10.8162
▁local	-10.8162
▁Gretel	-10.8163
▁resting	-10.8164
▁compassion	-10.8164
▁somebody	-10.8166
▁High	-10.817
▁beaten	-10.8173
▁crest	-10.8173
▁crimes	-10.8182
▁dine	-10.8184
▁gale	-10.8187
▁grin	-10.8193
▁hath	-10.8193
han	-10.8204
▁dwelling	-10.8211
▁represented	-10.8211
▁sufferings	-10.8214
▁charms	-10.8218
▁belonging	-10.8225
▁Ge	-10.8226
▁Parisian	-10.8232
▁None	-10.8232
▁sinking	-10.8237
▁wondering	-10.8238
cover	-10.8238
This	-10.8243
▁strangely	-10.825
▁comrade	-10.8256
▁breathed	-10.8257
▁beach	-10.8258
▁crawl	-10.8259
▁endeavour	-10.8259
▁shoot	-10.8262
▁Love	-10.8265
hearted	-10.8269
▁announce	-10.8272
▁tip	-10.8272
▁successful	-10.8279
▁passions	-10.8279
▁foes	-10.8283
▁darted	-10.8285
▁warn	-10.8286
▁closer	-10.829
▁reports	-10.8294
▁joyful	-10.8297
lop	-10.8299
▁opinions	-10.8299
▁Kanga	-10.8306
▁Thrasymachus	-10.8306
▁Virgil	-10.8306
▁admirable	-10.8306
▁blaze	-10.8306
▁community	-10.8306
▁patience	-10.8306
▁seldom	-10.8306
▁tradition	-10.8306
▁velvet	-10.8306
▁portrait	-10.8306
▁resource	-10.8306
▁shrugg	-10.8306
▁Wait	-10.8306
▁shift	-10.8306
▁changing	-10.8306
▁reference	-10.8307
▁Moby	-10.8307
▁saddle	-10.8307
▁student	-10.8308
▁earlier	-10.831
▁Indian	-10.8313
▁puff	-10.8314
▁replaced	-10.8321
▁ram	-10.8328
▁bone	-10.8336
▁confined	-10.8344
▁freely	-10.8348
▁endless	-10.836
▁wherever	-10.8372
piece	-10.8384
ifying	-10.8387
▁pockets	-10.8387
That	-10.8387
▁Cossacks	-10.8391
▁Du	-10.8397
oh	-10.84
uite	-10.84
▁XI	-10.8401
▁vanish	-10.8406
maid	-10.8407
▁stuff	-10.841
▁Hill	-10.8413
▁Au	-10.8414
▁fright	-10.8419
▁provide	-10.8419
▁examine	-10.8419
▁farm	-10.8429
dam	-10.8432
race	-10.8436
▁mutual	-10.8453
▁Barrois	-10.8453
▁Longbourn	-10.8453
▁Spanish	-10.8453
▁Tkhon	-10.8453
▁bloom	-10.8453
▁cigar	-10.8453
▁constitution	-10.8453
▁discipline	-10.8453
▁feather	-10.8453
▁obscurity	-10.8453
▁occupy	-10.8453
▁reception	-10.8453
▁valuable	-10.8453
▁waistcoat	-10.8453
▁ivory	-10.8453
▁rascal	-10.8453
▁decline	-10.8453
▁skirt	-10.8453
▁swarm	-10.8453
▁blade	-10.8453
▁plot	-10.8453
▁ugly	-10.8454
▁bind	-10.8454
▁yonder	-10.8454
▁Think	-10.8455
▁balloon	-10.8455
▁scorn	-10.8455
▁slip	-10.8456
▁procureur	-10.8456
▁Book	-10.8457
sco	-10.8459
▁inward	-10.8459
▁helmet	-10.8461
ky	-10.8467
▁wanting	-10.8471
▁Get	-10.8478
▁deprived	-10.8479
▁wealthy	-10.8481
AM	-10.8493
▁pulling	-10.8502
▁warning	-10.8506
▁hunting	-10.8508
▁awaited	-10.851
▁gather	-10.8512
rist	-10.8517
▁missing	-10.8519
▁guessed	-10.853
▁needle	-10.8531
▁lawn	-10.8534
▁col	-10.854
▁swam	-10.8541
net	-10.8544
▁dash	-10.8559
▁wasnt	-10.856
bid	-10.8561
char	-10.8569
▁qui	-10.8573
gate	-10.8574
▁apparent	-10.8578
▁chimney	-10.8602
▁exceed	-10.8603
▁Michael	-10.8603
▁Montparnasse	-10.8603
▁People	-10.8603
▁contemplation	-10.8603
▁crept	-10.8603
▁emperor	-10.8603
▁essential	-10.8603
▁examination	-10.8603
▁examining	-10.8603
▁poverty	-10.8603
▁redoubt	-10.8603
▁revolt	-10.8603
▁slender	-10.8603
▁spectre	-10.8603
▁unnatural	-10.8603
▁barrel	-10.8603
▁whither	-10.8603
▁robber	-10.8603
▁yon	-10.8603
truck	-10.8605
▁owing	-10.8606
▁cake	-10.8606
▁foul	-10.8607
▁Hold	-10.861
▁Other	-10.861
▁standard	-10.8612
▁likewise	-10.8613
▁somehow	-10.8619
▁tend	-10.8634
▁deceive	-10.8634
▁doesnt	-10.8645
▁swiftly	-10.8659
▁Head	-10.8673
▁mourn	-10.8682
ax	-10.8688
▁deeper	-10.8694
▁discuss	-10.8695
▁interior	-10.8696
▁marks	-10.8696
▁hast	-10.8702
▁acted	-10.8706
▁prevail	-10.8707
▁engage	-10.8713
AD	-10.8715
ux	-10.8716
▁venture	-10.8721
▁isnt	-10.8721
▁lively	-10.8721
▁immediate	-10.873
▁degrees	-10.8751
▁submit	-10.8752
▁Charlotte	-10.8754
▁William	-10.8754
▁behaviour	-10.8754
▁draught	-10.8754
▁haughty	-10.8754
▁indescribable	-10.8754
▁newspaper	-10.8754
▁significant	-10.8754
▁statue	-10.8754
▁Baptistin	-10.8754
▁rejoin	-10.8754
▁skull	-10.8754
▁supply	-10.8754
▁creak	-10.8754
▁incapable	-10.8754
▁ashore	-10.8754
▁Lucas	-10.8755
▁memories	-10.8755
▁reject	-10.8756
▁travelling	-10.8757
▁linger	-10.8758
▁nest	-10.8766
aste	-10.8769
▁wagon	-10.8771
▁fog	-10.8773
▁marrying	-10.8775
za	-10.8775
▁upright	-10.8779
▁grows	-10.8781
▁sage	-10.8785
▁lust	-10.8788
▁statement	-10.8806
▁drug	-10.881
▁rules	-10.8816
▁sobs	-10.8821
OW	-10.8821
▁repeating	-10.8834
▁Sea	-10.8838
ement	-10.8839
▁tales	-10.8841
▁alley	-10.8846
▁wag	-10.8851
▁depart	-10.886
▁shiver	-10.8864
▁chairs	-10.8866
▁depth	-10.8867
▁thanked	-10.8879
▁retreated	-10.8882
ability	-10.8884
nder	-10.8887
▁aint	-10.8892
▁develop	-10.8902
ole	-10.8903
▁traces	-10.8904
uincey	-10.8908
▁Bennigsen	-10.8908
▁Should	-10.8908
▁catastrophe	-10.8908
▁communication	-10.8908
▁expense	-10.8908
▁horrid	-10.8908
▁sinister	-10.8908
▁skeleton	-10.8908
▁skilful	-10.8908
▁uneasiness	-10.8908
▁trench	-10.8908
▁daily	-10.8908
▁glove	-10.8908
▁Death	-10.8908
▁converse	-10.8908
▁bulk	-10.8908
▁neighborhood	-10.8909
▁lately	-10.8909
▁woke	-10.8909
▁authorities	-10.891
▁pun	-10.8916
▁Col	-10.8917
▁Hear	-10.8918
▁scent	-10.8921
▁cling	-10.8921
▁reasoning	-10.8923
▁adored	-10.8927
▁intently	-10.8927
▁thicket	-10.8927
▁threatening	-10.8932
▁shout	-10.8934
▁stable	-10.8934
▁drawer	-10.8938
▁foundation	-10.8947
▁admired	-10.8953
▁unexpectedly	-10.8953
▁swallowed	-10.8953
▁Pri	-10.8961
▁wi	-10.8962
▁veins	-10.8966
▁gallop	-10.8974
▁missed	-10.8981
▁income	-10.8983
▁sway	-10.8988
▁fin	-10.8999
▁unity	-10.9005
ssa	-10.9007
▁dish	-10.9008
turn	-10.9011
▁summon	-10.9019
▁propose	-10.9031
▁answering	-10.9034
▁elements	-10.905
▁guilt	-10.9051
▁mile	-10.9059
▁jewel	-10.9064
▁swim	-10.9064
▁Leviathan	-10.9064
▁autumn	-10.9064
▁conjecture	-10.9064
▁mischief	-10.9064
▁perfume	-10.9064
▁probability	-10.9064
▁simplicity	-10.9064
▁Shih	-10.9064
▁Life	-10.9064
▁volume	-10.9064
▁sphere	-10.9064
▁fortnight	-10.9064
▁aloft	-10.9064
▁Morris	-10.9065
▁XIV	-10.9065
graph	-10.9066
▁Under	-10.9067
cia	-10.9068
▁refer	-10.907
▁grim	-10.9071
▁drunken	-10.9071
▁sorrowful	-10.9077
▁palm	-10.9084
▁jet	-10.9088
▁adopted	-10.9092
▁frowning	-10.9093
▁lowered	-10.9104
self	-10.9106
▁belly	-10.9113
▁range	-10.9117
eyed	-10.9124
▁formal	-10.9127
wood	-10.9158
▁reli	-10.9158
▁shower	-10.9159
▁youngest	-10.9164
▁charged	-10.9167
nic	-10.9169
▁rout	-10.9181
▁interval	-10.9188
▁equ	-10.9204
pound	-10.9208
▁assert	-10.9211
▁profess	-10.9214
▁Capulet	-10.9223
▁Juno	-10.9223
▁Whether	-10.9223
▁appetite	-10.9223
▁extremity	-10.9223
▁interview	-10.9223
▁narrative	-10.9223
▁pleasing	-10.9223
▁thief	-10.9223
▁diminish	-10.9223
▁imitation	-10.9223
▁province	-10.9223
▁Tshin	-10.9223
▁wrapped	-10.9223
▁fowl	-10.9223
▁swimming	-10.9223
▁salon	-10.9223
▁inquiry	-10.9223
▁argue	-10.9223
▁seizing	-10.9223
▁screw	-10.9224
▁lawyer	-10.9224
▁rattle	-10.9224
▁mantle	-10.9225
▁saint	-10.9225
aid	-10.9225
▁slang	-10.9226
▁villain	-10.9227
▁Csar	-10.9228
▁difficulties	-10.9229
▁fitted	-10.923
▁Near	-10.923
▁personage	-10.9235
▁Mont	-10.9237
▁shakes	-10.9238
▁frost	-10.924
▁Vra	-10.9248
▁fling	-10.9255
▁Gu	-10.9255
▁surrounding	-10.9255
mar	-10.9259
▁screamed	-10.9264
gle	-10.9271
▁hated	-10.9276
▁Han	-10.9277
▁dense	-10.9277
▁killing	-10.9278
▁Fe	-10.9283
▁blessing	-10.9283
▁apartments	-10.9302
dia	-10.9316
▁boldly	-10.9319
How	-10.9327
▁boot	-10.9333
▁swallow	-10.9337
▁guards	-10.9345
shot	-10.9349
▁x	-10.9357
▁pane	-10.9359
now	-10.9361
▁ruins	-10.9371
▁smaller	-10.9378
▁Empire	-10.9384
▁Grantaire	-10.9384
▁Kitty	-10.9384
▁Netherfield	-10.9384
▁assembly	-10.9384
▁contrive	-10.9384
▁democracy	-10.9384
▁elephant	-10.9384
▁exhibit	-10.9384
▁harbour	-10.9384
▁innocence	-10.9384
▁obedience	-10.9384
▁ribbon	-10.9384
▁scratch	-10.9384
▁supposing	-10.9384
▁tranquillity	-10.9384
▁Venus	-10.9384
▁clutch	-10.9384
▁flourish	-10.9384
▁widow	-10.9384
▁rival	-10.9384
▁subtle	-10.9384
▁sweat	-10.9384
▁vigorous	-10.9385
▁funny	-10.9385
▁print	-10.9385
▁festival	-10.9386
▁gallant	-10.9386
▁sunset	-10.9388
▁score	-10.9388
▁icon	-10.9389
▁Montfermeil	-10.9389
▁fence	-10.939
▁bi	-10.9395
▁joyous	-10.9399
▁WHI	-10.94
▁attentively	-10.9401
▁suspended	-10.9402
▁witch	-10.9404
▁lucky	-10.9412
▁offended	-10.9415
▁floating	-10.942
▁hare	-10.942
▁bleeding	-10.9425
▁reserved	-10.9429
▁glasses	-10.9437
▁Hills	-10.9438
faced	-10.9448
▁crow	-10.9453
▁riches	-10.9456
▁push	-10.9457
▁cards	-10.9464
▁attained	-10.9464
lli	-10.9466
▁ju	-10.9474
▁duel	-10.9487
cut	-10.9492
▁reveal	-10.9501
▁mix	-10.9503
▁rail	-10.9509
▁arrange	-10.9511
▁lid	-10.9516
▁issue	-10.9518
▁conducted	-10.9522
▁govern	-10.9528
UL	-10.9529
▁jealous	-10.9535
▁demands	-10.9538
▁reported	-10.9539
▁Ku	-10.9541
ology	-10.9548
▁leisure	-10.9548
▁Eumaeus	-10.9548
▁Tomorrow	-10.9548
▁centuries	-10.9548
▁consolation	-10.9548
▁elapsed	-10.9548
▁marvellous	-10.9548
▁tremendous	-10.9548
▁tumble	-10.9548
▁variety	-10.9548
▁virgin	-10.9548
▁yourselves	-10.9548
▁flaming	-10.9548
▁waking	-10.9548
▁renown	-10.9548
▁peep	-10.9548
▁garment	-10.9548
▁confound	-10.9548
▁Simon	-10.9549
▁slumber	-10.9549
▁breed	-10.9549
burg	-10.9549
▁protest	-10.9549
▁Duke	-10.9549
▁fiend	-10.955
▁chatter	-10.9551
▁upwards	-10.9551
▁stopping	-10.9551
▁allude	-10.9551
▁goats	-10.9551
▁create	-10.9554
▁lip	-10.9556
ular	-10.9562
▁accused	-10.9565
▁whalemen	-10.9566
▁tossed	-10.957
▁hedge	-10.958
▁exchanged	-10.9589
af	-10.9595
▁forbid	-10.9602
▁contempt	-10.961
▁suspected	-10.9611
▁bitterly	-10.9613
▁solemnly	-10.9614
▁eighty	-10.9616
▁et	-10.9639
▁older	-10.964
▁sharply	-10.9648
When	-10.9649
▁disdain	-10.965
▁Pu	-10.9651
▁spin	-10.9652
▁Fr	-10.9654
ware	-10.9663
ANT	-10.9664
▁elbows	-10.967
▁conceive	-10.968
▁capture	-10.9682
gin	-10.9694
▁emotions	-10.9696
acious	-10.9697
▁temples	-10.971
▁Doctor	-10.9715
▁application	-10.9715
▁arriving	-10.9715
▁ascertain	-10.9715
▁cemetery	-10.9715
▁closing	-10.9715
▁fountain	-10.9715
▁insurrection	-10.9715
▁overthrow	-10.9715
▁spectator	-10.9715
▁transform	-10.9715
▁lodging	-10.9715
▁pilot	-10.9715
▁scrutiniz	-10.9715
▁trifle	-10.9715
▁suppress	-10.9715
▁facing	-10.9716
▁Oer	-10.9716
▁jacket	-10.9717
▁prim	-10.972
▁protection	-10.9723
scribed	-10.9726
▁theatre	-10.9727
▁sup	-10.9727
▁certainty	-10.9731
▁assent	-10.9731
igu	-10.9739
▁doorway	-10.9741
▁sadness	-10.9747
▁timidly	-10.9748
ville	-10.9752
▁labours	-10.976
nus	-10.9761
▁wink	-10.9768
▁waved	-10.9772
where	-10.9773
▁Dis	-10.9776
▁howling	-10.9776
▁rent	-10.9778
11	-10.981
▁banks	-10.9817
▁fan	-10.9817
▁continu	-10.9824
▁Er	-10.9829
tend	-10.9831
▁punish	-10.9834
▁lean	-10.9835
▁gravely	-10.9837
▁condemn	-10.9837
▁glitter	-10.984
UT	-10.9846
▁introduce	-10.985
▁emerge	-10.9851
prop	-10.9854
▁arrow	-10.9858
▁unconscious	-10.986
▁brows	-10.9863
vat	-10.9865
▁nigh	-10.9868
▁happening	-10.9873
▁excess	-10.9882
▁spark	-10.9883
incomprehensible	-10.9884
▁BENVOLIO	-10.9884
▁Beneath	-10.9884
▁Bossuet	-10.9884
▁Jordan	-10.9884
▁Monseigneur	-10.9884
▁Nesvtski	-10.9884
▁contemplate	-10.9884
▁downstairs	-10.9884
▁rescue	-10.9884
▁shroud	-10.9884
▁wondrous	-10.9884
▁splash	-10.9884
▁dried	-10.9884
▁spell	-10.9884
nceforth	-10.9884
▁defect	-10.9885
▁tiger	-10.9885
▁Tsar	-10.9886
▁product	-10.9887
▁consequently	-10.9889
▁stolen	-10.9892
▁Make	-10.9893
▁exile	-10.9895
▁incessantly	-10.9898
▁Art	-10.99
▁senseless	-10.9903
▁grieved	-10.9905
▁novel	-10.9906
▁upset	-10.9911
wise	-10.9914
▁woes	-10.992
▁chains	-10.9923
▁barb	-10.9927
13	-10.9934
▁gathering	-10.9935
▁Lucys	-10.9937
▁rust	-10.9939
▁balance	-10.995
▁Don	-10.9958
▁ce	-10.9961
▁strengthen	-10.9978
▁mid	-10.9978
▁paying	-10.9984
oke	-10.9988
▁invent	-11.0002
igh	-11.0006
▁jaws	-11.0006
▁confirm	-11.0009
▁betray	-11.0009
▁whereon	-11.0018
▁Guard	-11.0036
▁limb	-11.0052
Between	-11.0057
▁Hawkins	-11.0057
▁Spernski	-11.0057
▁benefactor	-11.0057
▁privilege	-11.0057
▁vulgar	-11.0057
▁bayonet	-11.0057
▁detachment	-11.0057
▁eagle	-11.0057
▁flutter	-11.0057
▁gulf	-11.0057
▁imitate	-11.0057
▁inflict	-11.0057
▁pluck	-11.0057
▁pupil	-11.0057
▁cheese	-11.0057
▁Full	-11.0057
▁exceedingly	-11.0057
▁reserve	-11.0057
▁allusion	-11.0058
▁Turn	-11.0058
▁stake	-11.0058
▁raging	-11.0058
▁stove	-11.006
▁patch	-11.0061
▁noticing	-11.0062
▁startled	-11.0063
▁cities	-11.0065
▁repress	-11.0065
▁increasing	-11.0065
▁fed	-11.0065
▁aroused	-11.007
▁chapel	-11.007
▁pink	-11.0071
▁roused	-11.0075
▁footman	-11.0076
▁heels	-11.0081
▁mill	-11.0082
▁remove	-11.0085
▁reflections	-11.0088
▁wandering	-11.0092
▁map	-11.01
▁restless	-11.0101
▁Last	-11.0109
IL	-11.011
▁persuaded	-11.0112
▁reminded	-11.0119
▁properly	-11.013
▁mates	-11.0132
▁pet	-11.0132
▁extend	-11.0142
▁Whom	-11.0145
▁XVI	-11.0164
▁shared	-11.0173
▁renew	-11.0185
▁bleed	-11.019
ez	-11.0201
▁realize	-11.0201
▁career	-11.0208
▁dew	-11.0212
▁comb	-11.0216
▁unite	-11.0218
▁avail	-11.0231
▁Luigi	-11.0232
▁darling	-11.0232
▁daybreak	-11.0232
▁gravedigger	-11.0232
▁nephew	-11.0232
▁offspring	-11.0232
▁perspiration	-11.0232
▁placing	-11.0232
▁vanity	-11.0232
▁Pallas	-11.0232
▁achieve	-11.0232
▁halfpast	-11.0232
▁prophet	-11.0232
▁recognise	-11.0232
▁wreck	-11.0232
▁Place	-11.0232
▁stroll	-11.0232
▁livid	-11.0232
▁brick	-11.0232
▁combined	-11.0232
▁copy	-11.0232
▁Wellington	-11.0232
▁foremost	-11.0232
▁tread	-11.0232
▁amusing	-11.0233
▁falsehood	-11.0233
▁invest	-11.0235
▁feverish	-11.0235
▁grain	-11.0235
▁herald	-11.0238
gne	-11.0238
bow	-11.024
▁procession	-11.0246
▁amidst	-11.0251
▁pan	-11.0251
▁heroic	-11.0253
air	-11.0255
▁center	-11.0257
▁respectfully	-11.0257
▁classes	-11.0263
▁twisted	-11.0264
▁issued	-11.027
▁Ru	-11.0276
maker	-11.0278
▁exposed	-11.0281
▁acknowledged	-11.0281
off	-11.0285
▁quivering	-11.0303
▁perished	-11.031
▁hurrying	-11.0329
▁sending	-11.034
uous	-11.0359
▁Cap	-11.0365
AY	-11.0366
bone	-11.0372
master	-11.0373
AC	-11.0378
▁sailing	-11.0379
▁recent	-11.0386
▁wan	-11.039
▁spectacle	-11.0395
▁bullet	-11.0396
▁contradict	-11.0397
▁cautious	-11.0411
▁Adeimantus	-11.0411
▁Teresa	-11.0411
▁associate	-11.0411
▁prudent	-11.0411
▁review	-11.0411
▁surrender	-11.0411
▁symptom	-11.0411
▁Nurse	-11.0411
▁combination	-11.0411
▁fourteen	-11.0411
▁opposition	-11.0411
▁dismay	-11.0411
▁sanct	-11.0411
▁banquet	-11.0411
▁glide	-11.0411
▁repent	-11.0411
▁intellectual	-11.0411
▁neighbourhood	-11.0411
▁opera	-11.0411
▁hovel	-11.0412
▁denied	-11.0412
▁favourite	-11.0412
▁haunt	-11.0413
▁lend	-11.0417
▁detest	-11.0419
▁rapidity	-11.0419
▁diary	-11.0419
▁neat	-11.042
▁American	-11.0421
▁frontier	-11.0422
▁injured	-11.0423
▁careless	-11.0423
door	-11.0432
▁relieved	-11.0432
▁vile	-11.0432
▁realise	-11.0433
▁blushed	-11.0442
▁gall	-11.0444
▁clasped	-11.045
▁spit	-11.0452
▁flo	-11.0452
▁Juliet	-11.0454
vy	-11.0456
▁XII	-11.046
then	-11.0464
▁towers	-11.0465
▁corps	-11.0466
▁vaguely	-11.0477
▁conveyed	-11.0482
▁washed	-11.0483
▁havent	-11.0484
lit	-11.0487
▁XV	-11.0495
▁nu	-11.0497
▁BE	-11.0511
uv	-11.052
▁crownd	-11.0521
▁shell	-11.0525
▁attract	-11.0526
▁belt	-11.0553
▁oppose	-11.0558
▁21	-11.0564
▁chap	-11.0577
▁gap	-11.058
tending	-11.0589
IGHT	-11.0593
▁Goodbye	-11.0593
▁Pharaon	-11.0593
▁audience	-11.0593
▁faculty	-11.0593
▁opponent	-11.0593
▁suck	-11.0593
▁waist	-11.0593
▁Henry	-11.0593
▁suspicious	-11.0593
▁rubles	-11.0593
▁link	-11.0594
▁establishment	-11.0594
▁masthead	-11.0595
▁folds	-11.0596
▁politeness	-11.0597
▁assistant	-11.0597
▁humor	-11.0597
▁neas	-11.0598
▁compass	-11.0606
▁spies	-11.0607
▁miser	-11.0613
▁perfection	-11.0619
▁uttering	-11.062
▁opposed	-11.0627
▁earnestly	-11.0636
▁cent	-11.0637
▁pushing	-11.0642
trees	-11.0646
▁mourning	-11.0646
▁Bri	-11.0651
▁doubtful	-11.0653
▁leaped	-11.066
▁displayed	-11.067
▁paced	-11.067
test	-11.067
cco	-11.0685
▁scream	-11.0686
▁forming	-11.0691
▁fri	-11.0695
gan	-11.0705
▁threat	-11.0709
▁Up	-11.0714
▁file	-11.0724
▁Pip	-11.0743
▁shoe	-11.0745
▁Toll	-11.0753
boy	-11.0756
▁commence	-11.0776
▁discern	-11.0777
▁Benedetto	-11.0778
▁Karatev	-11.0778
▁MERCUTIO	-11.0778
▁Magloire	-11.0778
▁Tholomys	-11.0778
▁amazed	-11.0778
▁ambition	-11.0778
▁bewildered	-11.0778
▁bucket	-11.0778
▁calculation	-11.0778
▁coffee	-11.0778
▁escort	-11.0778
▁happily	-11.0778
▁paradise	-11.0778
▁pretext	-11.0778
▁satisfy	-11.0778
▁struggling	-11.0778
▁sunshine	-11.0778
▁swung	-11.0778
▁venerable	-11.0778
▁affirm	-11.0778
▁distribut	-11.0778
▁liberal	-11.0778
▁tavern	-11.0778
▁gossip	-11.0778
▁huntsman	-11.0778
▁augment	-11.0778
▁bishop	-11.0778
▁tumultuous	-11.0778
▁ardent	-11.0778
▁gallery	-11.0778
▁Strange	-11.0778
▁Please	-11.0779
▁disagreeable	-11.0779
▁wrist	-11.0779
▁cough	-11.078
▁oxen	-11.078
▁slew	-11.0781
▁panic	-11.0781
▁bandage	-11.0782
▁Spartan	-11.0787
▁stain	-11.0788
▁lake	-11.0788
▁Stop	-11.0794
▁Pont	-11.0804
▁warmth	-11.0804
▁dug	-11.0805
▁reins	-11.0805
▁attributed	-11.0808
▁Whatever	-11.0815
▁burnt	-11.0817
▁rarely	-11.0828
▁betrayed	-11.0829
▁shy	-11.0838
took	-11.0839
▁entertained	-11.0843
▁retained	-11.0845
▁22	-11.0848
▁climbed	-11.0849
▁delivered	-11.086
▁sternly	-11.0879
▁carrie	-11.088
▁Em	-11.0888
▁enjoyed	-11.0898
while	-11.0899
boat	-11.091
▁staying	-11.0912
▁scatter	-11.0919
will	-11.0925
▁wrinkle	-11.0932
▁precise	-11.0942
▁gendarmes	-11.0946
▁scarce	-11.0948
▁respectful	-11.0956
▁describing	-11.0966
▁exquisite	-11.0966
▁independent	-11.0966
▁Alcinous	-11.0966
▁Impossible	-11.0966
▁district	-11.0966
▁drift	-11.0966
▁eyebrows	-11.0966
▁introduction	-11.0966
▁sprung	-11.0966
▁worship	-11.0966
▁smart	-11.0966
▁wail	-11.0966
▁lonely	-11.0966
▁vital	-11.0966
▁supplied	-11.0967
▁extract	-11.0967
▁glare	-11.0967
▁azure	-11.0967
▁mould	-11.0967
▁roast	-11.0967
▁mustache	-11.0967
▁Although	-11.0967
▁wineshop	-11.0967
▁slipper	-11.0968
▁Bald	-11.0969
▁Night	-11.0969
▁waving	-11.097
▁confer	-11.0971
▁selfish	-11.0974
▁overtake	-11.0974
▁bushes	-11.0975
▁cub	-11.0975
▁aye	-11.0987
▁chat	-11.0991
▁recently	-11.0992
▁tiny	-11.0995
▁cage	-11.1017
▁punished	-11.102
▁arrangements	-11.1022
▁bowing	-11.1024
▁contend	-11.1046
▁awaken	-11.1053
cca	-11.1059
▁respected	-11.1095
▁murdered	-11.1097
HE	-11.1106
kh	-11.1108
▁drown	-11.1111
▁correspond	-11.1112
▁covering	-11.1113
▁build	-11.1115
▁suffice	-11.1124
▁induce	-11.1124
▁resolute	-11.1134
▁translat	-11.1151
▁ringing	-11.1155
▁Faubourg	-11.1159
▁Friend	-11.1159
▁Presently	-11.1159
▁Vulcan	-11.1159
▁apparition	-11.1159
▁gravity	-11.1159
▁niece	-11.1159
▁withdrew	-11.1159
▁Speak	-11.1159
▁cudgel	-11.1159
▁farewell	-11.1159
▁monument	-11.1159
▁publish	-11.1159
▁regain	-11.1159
▁ruffian	-11.1159
▁Phbus	-11.1159
▁Edward	-11.1159
▁cattle	-11.116
▁cherish	-11.116
▁preferred	-11.1161
▁impart	-11.1161
▁Everyone	-11.1162
▁travelled	-11.1163
▁ripe	-11.1165
▁moist	-11.1168
▁rib	-11.1169
▁chart	-11.1169
▁XIII	-11.117
▁enveloped	-11.1185
▁eh	-11.1186
▁Stand	-11.1187
▁seamen	-11.1187
▁yell	-11.1187
▁arrows	-11.1188
▁lowering	-11.1189
▁landing	-11.12
▁wandered	-11.1201
▁winding	-11.1201
scription	-11.1218
▁chanced	-11.1237
▁awakened	-11.125
▁Cape	-11.1254
▁containing	-11.1268
▁supported	-11.1291
▁stoop	-11.1311
▁torment	-11.1321
▁hail	-11.1322
▁dye	-11.1327
bit	-11.1331
gone	-11.1333
▁enable	-11.1341
▁madam	-11.1345
▁ven	-11.1351
▁searching	-11.1352
▁Aristotle	-11.1355
▁Behind	-11.1355
▁Bilbin	-11.1355
▁Kurgin	-11.1355
▁Saturday	-11.1355
▁Tybalt	-11.1355
▁convulsive	-11.1355
▁desirous	-11.1355
▁disgust	-11.1355
▁embroider	-11.1355
▁faculties	-11.1355
▁militia	-11.1355
▁obstacle	-11.1355
▁surprising	-11.1355
▁thieves	-11.1355
▁thrice	-11.1355
▁timber	-11.1355
▁reduced	-11.1355
▁louis	-11.1355
▁type	-11.1355
haired	-11.1355
▁mariner	-11.1355
▁spider	-11.1355
▁dragging	-11.1356
▁battlefield	-11.1356
▁groom	-11.1357
▁Signor	-11.1357
▁resistance	-11.1358
▁saving	-11.136
▁invade	-11.1362
▁swa	-11.1365
▁dusk	-11.1365
▁mute	-11.137
▁derived	-11.1372
▁growth	-11.1374
▁hinder	-11.1381
▁Later	-11.1383
▁educated	-11.1385
▁Bill	-11.1385
▁endured	-11.1417
▁dusty	-11.142
▁landed	-11.1429
▁coldly	-11.143
▁lifting	-11.1439
▁maintained	-11.145
two	-11.1458
▁flashed	-11.1475
IITHE	-11.149
born	-11.15
▁Youll	-11.1507
▁neglect	-11.1507
▁retreating	-11.1511
▁procure	-11.1517
▁planks	-11.1517
EC	-11.1519
▁intent	-11.1519
▁approve	-11.152
▁vivid	-11.153
▁frighten	-11.1537
▁determine	-11.1539
erie	-11.1544
▁bite	-11.1549
▁annoy	-11.1554
▁inherit	-11.1554
▁bush	-11.1555
ization	-11.1555
▁Bildad	-11.1555
▁Exactly	-11.1555
▁Luxembourg	-11.1555
▁Tydides	-11.1555
▁betrothed	-11.1555
▁complicated	-11.1555
▁delicacy	-11.1555
▁drooping	-11.1555
▁ferocious	-11.1555
▁genuine	-11.1555
▁indignant	-11.1555
▁innumerable	-11.1555
▁prodigious	-11.1555
▁retorted	-11.1555
▁uncommon	-11.1555
▁copper	-11.1555
▁cultivat	-11.1555
▁enlighten	-11.1555
▁essence	-11.1555
▁imperial	-11.1555
▁vexed	-11.1555
▁captive	-11.1555
▁prioress	-11.1555
▁goose	-11.1555
▁keel	-11.1555
▁Marquis	-11.1555
▁riot	-11.1555
▁detect	-11.1556
▁disappointment	-11.1556
▁pounds	-11.1556
▁adorn	-11.1557
▁spiritual	-11.1557
▁egg	-11.156
▁Leave	-11.156
▁temple	-11.1561
▁hue	-11.1561
▁sunlight	-11.1561
▁suitable	-11.1563
▁shun	-11.1563
▁expressive	-11.1564
23	-11.1565
▁forgetting	-11.1566
▁Papa	-11.1566
▁apt	-11.1568
▁bursting	-11.1572
▁bullets	-11.1574
▁trot	-11.1574
▁released	-11.1575
▁raft	-11.1583
▁unconsciously	-11.1584
▁threatened	-11.1589
▁impatiently	-11.159
▁joyfully	-11.1593
▁workman	-11.16
top	-11.16
▁union	-11.1602
▁attempted	-11.1603
▁solve	-11.1614
▁Son	-11.1618
▁fulfil	-11.1624
▁altered	-11.1633
▁tie	-11.1638
▁bathed	-11.1643
▁Dan	-11.1665
▁float	-11.1671
▁acting	-11.1672
▁dome	-11.1698
terior	-11.17
▁impress	-11.17
▁nuns	-11.1705
▁goal	-11.1715
load	-11.1718
▁indicate	-11.1724
road	-11.1725
▁planet	-11.1727
▁yielded	-11.1753
▁Achaeans	-11.1759
▁Antinous	-11.1759
▁Emerald	-11.1759
▁Vienna	-11.1759
▁borzoi	-11.1759
▁enclosure	-11.1759
▁fathom	-11.1759
▁grapeshot	-11.1759
▁institution	-11.1759
▁irregular	-11.1759
▁perceiving	-11.1759
▁plunder	-11.1759
▁prejudice	-11.1759
▁serene	-11.1759
▁unnecessary	-11.1759
▁vanquish	-11.1759
▁blast	-11.1759
▁bundle	-11.1759
▁relating	-11.1759
▁tobacco	-11.1759
▁marquis	-11.1759
▁uproar	-11.1759
▁jeweller	-11.176
▁forbidden	-11.176
▁Amphi	-11.176
▁hook	-11.176
▁jury	-11.1762
▁complexion	-11.1763
▁hover	-11.1768
▁observing	-11.1778
bol	-11.1805
▁watery	-11.1811
▁dined	-11.1815
▁purchased	-11.1815
▁invented	-11.1815
▁lace	-11.1824
▁washing	-11.1832
▁Stra	-11.1836
▁thereby	-11.1837
▁cure	-11.1842
▁Ya	-11.1843
▁nap	-11.1847
▁hiding	-11.1847
▁largest	-11.1856
▁del	-11.1856
liest	-11.1872
To	-11.1873
▁termed	-11.1876
hold	-11.1885
when	-11.1901
mark	-11.1908
▁stationed	-11.1913
▁outward	-11.1923
▁brand	-11.1954
▁Si	-11.1962
▁Gryphon	-11.1967
▁Olympus	-11.1967
▁Turtle	-11.1967
▁artificial	-11.1967
▁atmosphere	-11.1967
▁bargain	-11.1967
▁brute	-11.1967
▁horseback	-11.1967
▁illustrious	-11.1967
▁passersby	-11.1967
▁thumb	-11.1967
▁globe	-11.1967
▁pallor	-11.1967
▁Wicked	-11.1967
▁grandeur	-11.1967
▁unseen	-11.1967
▁screen	-11.1967
▁lunch	-11.1967
▁pocketbook	-11.1968
▁cordial	-11.1969
▁lurk	-11.1969
▁excessive	-11.197
▁temperance	-11.1971
▁bald	-11.1971
▁bury	-11.1976
▁duck	-11.1976
▁mock	-11.1977
▁stammered	-11.1981
▁ii	-11.1981
▁contradiction	-11.1983
war	-11.1984
▁Pass	-11.1986
▁included	-11.1988
▁gamin	-11.1989
▁thirsty	-11.1994
▁deemed	-11.2
▁demon	-11.2002
▁spreading	-11.2004
▁nut	-11.2005
▁CO	-11.2005
▁calmness	-11.2007
▁protector	-11.2009
▁tormented	-11.2018
▁dove	-11.2031
▁sincere	-11.2032
▁hay	-11.2036
▁sharks	-11.2041
had	-11.2051
▁pretended	-11.2052
▁Cat	-11.2072
tell	-11.2113
▁groaning	-11.2118
▁interrupt	-11.2121
▁cove	-11.2125
ino	-11.2135
▁Chu	-11.2135
▁attribute	-11.2145
▁expressing	-11.2152
▁Ver	-11.2164
▁curse	-11.2169
berg	-11.2174
▁differ	-11.2176
▁Philip	-11.2178
▁Church	-11.218
▁Fierce	-11.218
▁Livesey	-11.218
▁Meantime	-11.218
▁Pastrini	-11.218
▁Pemberley	-11.218
▁Woking	-11.218
▁anticipate	-11.218
▁capacity	-11.218
▁clung	-11.218
▁dazzled	-11.218
▁ecstasy	-11.218
▁fancies	-11.218
▁impatience	-11.218
▁inclination	-11.218
▁lieutenant	-11.218
▁morrow	-11.218
▁rattling	-11.218
▁remembrance	-11.218
▁resemblance	-11.218
▁serving	-11.218
▁strife	-11.218
▁swineherd	-11.218
▁symbol	-11.218
▁thirteen	-11.218
▁vicinity	-11.218
▁Dutch	-11.218
▁client	-11.218
▁enlarg	-11.218
▁newcomer	-11.218
▁dumb	-11.218
▁Could	-11.218
▁Basque	-11.218
▁Murat	-11.218
▁frantic	-11.218
▁innkeeper	-11.218
▁console	-11.218
▁York	-11.218
▁thigh	-11.218
▁marvel	-11.218
▁alliance	-11.218
▁transferred	-11.2181
▁Read	-11.2181
▁prowl	-11.2181
▁cupboard	-11.2181
▁referred	-11.2181
▁contest	-11.2182
▁sparkling	-11.2182
▁stirring	-11.2182
▁House	-11.2183
▁rug	-11.2183
▁improvement	-11.2185
▁robe	-11.2186
▁compare	-11.2189
▁superiority	-11.2193
▁eagerness	-11.2194
▁inches	-11.2199
▁respectable	-11.2199
▁wretchedness	-11.22
▁Phaeacians	-11.2204
So	-11.2228
▁bulwarks	-11.223
▁discussed	-11.2247
▁painter	-11.2248
▁clad	-11.2266
CK	-11.2268
▁HIS	-11.2269
▁owed	-11.2273
▁personally	-11.2274
▁afforded	-11.2275
▁lacking	-11.2278
duct	-11.2288
All	-11.2293
▁nerves	-11.2295
▁surround	-11.2306
▁wander	-11.2307
▁provisions	-11.232
worth	-11.2332
▁flowed	-11.2349
▁clasp	-11.2353
▁invite	-11.2364
▁hearth	-11.2364
▁gladly	-11.2376
▁amuse	-11.2382
▁hum	-11.2382
▁stole	-11.239
ATION	-11.2397
▁Busoni	-11.2397
▁Lucien	-11.2397
▁Meryton	-11.2397
▁appointment	-11.2397
▁apprehension	-11.2397
▁baggage	-11.2397
▁expedition	-11.2397
▁livres	-11.2397
▁miracle	-11.2397
▁practise	-11.2397
▁reconcil	-11.2397
▁refusal	-11.2397
▁rigid	-11.2397
▁scoundrel	-11.2397
▁security	-11.2397
▁sketch	-11.2397
▁trumpet	-11.2397
▁campfire	-11.2397
▁empire	-11.2397
▁navy	-11.2397
▁scaffold	-11.2397
▁steadily	-11.2397
▁expand	-11.2397
▁Cross	-11.2397
▁Half	-11.2397
▁hounds	-11.2397
▁dame	-11.2397
▁rubbed	-11.2398
▁consume	-11.2398
▁robbed	-11.2398
▁shutters	-11.2398
▁bristl	-11.2398
▁Lyc	-11.2398
▁ditch	-11.24
▁hoping	-11.2401
▁saber	-11.2402
▁token	-11.2403
▁nave	-11.2404
▁Mock	-11.2406
▁speculation	-11.2414
▁willingly	-11.2416
▁je	-11.2417
▁honorable	-11.2419
▁converted	-11.242
▁gendarme	-11.2421
▁pious	-11.2424
▁si	-11.2426
▁stamped	-11.2427
▁citizen	-11.2428
▁childish	-11.243
shop	-11.2432
▁possesses	-11.2432
▁Muse	-11.2433
▁weigh	-11.2434
▁insurgents	-11.2435
▁approved	-11.2435
▁regimental	-11.2436
▁wrinkled	-11.2437
▁conceived	-11.2443
▁tub	-11.2447
▁neglected	-11.2449
▁plump	-11.2451
▁drowned	-11.2451
▁extending	-11.2454
▁confirmed	-11.2458
▁louder	-11.246
▁Chuan	-11.2462
▁dimly	-11.2464
▁prevailed	-11.2466
▁male	-11.2471
▁planted	-11.2499
▁glowing	-11.2509
▁whiteness	-11.2513
▁reigned	-11.2523
▁tune	-11.2539
▁measured	-11.254
▁tasted	-11.254
UE	-11.2543
ground	-11.2547
point	-11.2554
Then	-11.2574
▁avoided	-11.2584
▁praying	-11.2591
▁inspect	-11.2613
▁quo	-11.2617
▁regulat	-11.2619
▁Turk	-11.262
▁obstinate	-11.262
▁Auteuil	-11.262
▁Brother	-11.262
▁Brujon	-11.262
▁Clerval	-11.262
▁FRIAR	-11.262
▁Hurrah	-11.262
▁arranging	-11.262
▁convenient	-11.262
▁decisive	-11.262
▁fantastic	-11.262
▁investigation	-11.262
▁launch	-11.262
▁meditation	-11.262
▁parallel	-11.262
▁rhythm	-11.262
▁serpent	-11.262
▁signature	-11.262
▁disaster	-11.262
▁strand	-11.262
▁silly	-11.262
▁philosophical	-11.262
▁XXX	-11.262
▁implore	-11.262
▁Merion	-11.262
▁crumb	-11.262
▁entry	-11.262
▁sleigh	-11.262
▁Flint	-11.262
▁irre	-11.2621
▁railway	-11.2621
▁petty	-11.2621
▁stirred	-11.2622
▁victorious	-11.2622
▁begging	-11.2622
▁Shu	-11.2624
▁curve	-11.2636
▁puzzled	-11.2639
▁confession	-11.2641
▁constructed	-11.2642
▁polished	-11.2643
▁Port	-11.2643
▁marched	-11.2646
33	-11.2651
They	-11.2652
▁penetrated	-11.2654
▁amused	-11.2656
▁displeased	-11.2659
ancy	-11.2661
▁parent	-11.2663
▁bravest	-11.2665
▁pant	-11.2671
▁smallest	-11.268
▁renewed	-11.268
▁selected	-11.2694
▁err	-11.2695
▁secured	-11.2712
▁remov	-11.2718
▁neighboring	-11.272
▁cracked	-11.2721
▁rob	-11.2725
▁handful	-11.2743
box	-11.2784
Well	-11.2785
▁catching	-11.2794
▁jar	-11.2806
▁alarming	-11.281
▁rejoice	-11.2812
▁penetrate	-11.2812
more	-11.2814
▁exert	-11.283
▁Gl	-11.2838
▁interpret	-11.2838
There	-11.2839
▁boar	-11.2843
▁import	-11.2844
stricken	-11.2847
▁Barclay	-11.2847
▁Champslyses	-11.2847
▁Excuse	-11.2847
▁Felix	-11.2847
▁HISPANIOLA	-11.2847
▁LADY	-11.2847
▁Plumet	-11.2847
▁Tashtego	-11.2847
▁believing	-11.2847
▁bronze	-11.2847
▁ceremony	-11.2847
▁comparative	-11.2847
▁embarrassment	-11.2847
▁function	-11.2847
▁ingenious	-11.2847
▁necessarily	-11.2847
▁provoke	-11.2847
▁recognizing	-11.2847
▁subterranean	-11.2847
▁telegraph	-11.2847
▁terribly	-11.2847
▁wellknown	-11.2847
▁Charles	-11.2847
▁assault	-11.2847
▁despatch	-11.2847
▁fugitive	-11.2847
▁grotto	-11.2847
▁overflow	-11.2847
▁Hatter	-11.2847
▁expire	-11.2847
▁sunrise	-11.2847
▁WITH	-11.2847
▁Spain	-11.2847
▁presume	-11.2847
▁interfere	-11.2847
▁job	-11.2847
▁torrent	-11.2847
▁contemptuous	-11.2847
▁array	-11.2847
▁midday	-11.2847
lmighty	-11.2848
▁stockings	-11.2849
▁dropping	-11.2849
▁grove	-11.2849
▁speedily	-11.285
▁dining	-11.2851
▁simultaneously	-11.2852
▁hospitality	-11.2853
▁Mason	-11.2853
▁favourable	-11.2854
▁fireplace	-11.2854
▁calculated	-11.2854
▁Highness	-11.2856
▁semi	-11.2857
▁madman	-11.2861
▁countries	-11.2861
▁warlike	-11.2865
▁enjoyment	-11.2867
▁coil	-11.287
▁preceded	-11.2872
▁nowhere	-11.2873
▁discharged	-11.2875
▁rejoiced	-11.2882
▁model	-11.2882
▁cursed	-11.2888
▁quay	-11.2889
▁Day	-11.2889
▁fasten	-11.2889
▁moan	-11.289
▁fulfilled	-11.2891
▁Aunt	-11.2893
▁Call	-11.2895
▁seaman	-11.2895
▁weighed	-11.2896
▁stooping	-11.2899
▁floated	-11.2903
▁rumor	-11.2906
▁wad	-11.2914
ILL	-11.2917
▁endeavoured	-11.2922
▁pond	-11.2927
▁hunted	-11.2939
▁growl	-11.2961
▁sober	-11.3
▁23	-11.3019
▁attach	-11.3027
▁stud	-11.3061
▁Victor	-11.3079
▁Chteau	-11.3079
▁Jupiter	-11.3079
▁Minister	-11.3079
▁beauteous	-11.3079
▁blazing	-11.3079
▁blouse	-11.3079
▁brutal	-11.3079
▁crimson	-11.3079
▁dagger	-11.3079
▁dazzling	-11.3079
▁distrust	-11.3079
▁embarrassed	-11.3079
▁ghastly	-11.3079
▁irresistible	-11.3079
▁knoll	-11.3079
▁plead	-11.3079
▁sceptre	-11.3079
▁uncomfortable	-11.3079
▁churchyard	-11.3079
▁edition	-11.3079
▁pattern	-11.3079
▁romance	-11.3079
▁Around	-11.3079
▁clatter	-11.3079
▁descent	-11.3079
▁shaft	-11.3079
▁stature	-11.3079
▁Royal	-11.3079
▁knight	-11.3079
▁Gunn	-11.3079
▁yoke	-11.308
▁diningroom	-11.308
▁odor	-11.308
▁mixture	-11.308
▁discourse	-11.308
▁Peleg	-11.308
▁concentrated	-11.3081
vocation	-11.3081
▁slack	-11.3083
▁readiness	-11.3084
▁impose	-11.3085
▁stepping	-11.3085
▁traitor	-11.3086
▁buttons	-11.3087
EP	-11.3087
EAR	-11.3089
▁curate	-11.309
▁national	-11.3094
▁Six	-11.3094
▁policeman	-11.3094
▁brandy	-11.3095
▁responded	-11.3099
▁vest	-11.3101
▁irritated	-11.3108
▁Out	-11.311
▁prolonged	-11.311
▁Frenchmen	-11.3112
▁Nation	-11.3113
▁Chao	-11.3119
▁league	-11.312
▁hopeless	-11.3125
▁recit	-11.3129
▁dresses	-11.3138
▁executioner	-11.3144
▁deserved	-11.3146
▁swaying	-11.3146
▁shivering	-11.3147
umber	-11.315
taking	-11.3151
▁snowy	-11.3153
▁healthy	-11.3153
▁fixd	-11.3157
▁faster	-11.317
20	-11.3175
▁cher	-11.3184
▁guided	-11.319
▁enthusiastic	-11.3199
▁whispering	-11.3212
▁spared	-11.322
▁mansion	-11.3221
▁frown	-11.3227
▁Sire	-11.3233
▁accordingly	-11.324
soever	-11.3252
about	-11.3254
▁overwhelm	-11.327
▁greet	-11.3273
▁attentive	-11.3293
▁Arch	-11.3297
▁Cla	-11.33
▁instruct	-11.3313
▁energetic	-11.3317
▁Gentlemen	-11.3318
▁Tuesday	-11.3318
▁Yanina	-11.3318
▁adjoining	-11.3318
▁biscuit	-11.3318
▁detached	-11.3318
▁easier	-11.3318
▁indignation	-11.3318
▁journal	-11.3318
▁literature	-11.3318
▁nostrils	-11.3318
▁recoil	-11.3318
▁resembling	-11.3318
▁whistling	-11.3318
▁Catalan	-11.3318
▁anteroom	-11.3318
▁bliss	-11.3318
▁ensued	-11.3318
▁marsh	-11.3318
▁shrill	-11.3318
▁Hunter	-11.3318
▁deform	-11.3318
▁injury	-11.3318
▁instinctively	-11.3318
▁invalid	-11.3318
▁Horse	-11.3318
▁Sister	-11.3318
▁verge	-11.3318
▁decent	-11.3318
▁tiptoe	-11.3318
▁jerk	-11.3318
▁rational	-11.3318
▁loaf	-11.3319
▁repel	-11.3319
▁civilized	-11.3319
▁envy	-11.3319
▁habitual	-11.3319
▁studies	-11.3319
▁rash	-11.3325
▁Down	-11.3326
▁Lycian	-11.3327
▁successive	-11.3328
▁invention	-11.3328
▁mission	-11.3331
▁mechanically	-11.3334
▁dispersed	-11.3335
▁prose	-11.3336
▁Maire	-11.3339
▁employment	-11.3339
AND	-11.3344
▁pie	-11.3346
▁sable	-11.3351
▁temptation	-11.3352
▁Dron	-11.3354
▁blushing	-11.3357
▁reappeared	-11.3357
▁feature	-11.3364
▁offence	-11.3365
▁frowned	-11.3365
▁impressed	-11.3373
have	-11.3375
▁clearness	-11.3384
▁elderly	-11.3385
▁learnt	-11.339
▁Put	-11.34
▁rot	-11.3403
▁plank	-11.3406
▁tenderly	-11.3413
▁based	-11.3422
▁Ere	-11.348
▁fairy	-11.3484
▁Cur	-11.3487
▁Duc	-11.3492
▁arrangement	-11.3494
three	-11.3496
▁Hi	-11.3496
▁hasty	-11.3496
woman	-11.35
▁accomplish	-11.3503
▁actor	-11.3506
▁toilet	-11.352
▁convince	-11.3527
▁continual	-11.3546
▁total	-11.3556
▁XX	-11.3559
▁compel	-11.356
▁Bonapartist	-11.3561
▁Daniel	-11.3561
▁Kansas	-11.3561
▁LAWRENCE	-11.3561
▁Remember	-11.3561
▁Temple	-11.3561
▁accusation	-11.3561
▁ambush	-11.3561
▁appreciate	-11.3561
▁avenue	-11.3561
▁denounce	-11.3561
▁extinct	-11.3561
▁goodnatured	-11.3561
▁imperfect	-11.3561
▁impetuous	-11.3561
▁inevitability	-11.3561
▁patrol	-11.3561
▁plaster	-11.3561
▁precipice	-11.3561
▁prefect	-11.3561
▁prostrate	-11.3561
▁severity	-11.3561
▁superstition	-11.3561
▁universe	-11.3561
▁Laertes	-11.3561
▁chestnut	-11.3561
▁contact	-11.3561
▁twentyfour	-11.3561
▁proverb	-11.3561
▁behalf	-11.3561
▁goodbye	-11.3561
▁muscle	-11.3561
▁softened	-11.3562
▁Jesus	-11.3562
▁Stay	-11.3562
▁medium	-11.3562
▁electric	-11.3562
▁divert	-11.3562
▁reenter	-11.3562
▁idol	-11.3562
▁Laws	-11.3562
▁determination	-11.3562
▁strides	-11.3563
▁nay	-11.3563
▁internal	-11.3563
▁accordance	-11.3564
▁brace	-11.3564
▁crash	-11.3564
▁acute	-11.3565
▁failure	-11.3567
▁patt	-11.3567
▁hereafter	-11.3567
▁amusement	-11.3568
▁spade	-11.3569
▁Wang	-11.3571
▁ONE	-11.3571
▁pomp	-11.3571
▁matchless	-11.3571
▁deaf	-11.3572
▁hearse	-11.3582
▁politely	-11.3585
▁overhead	-11.3586
coloured	-11.3589
▁communicated	-11.3589
▁resolutely	-11.3593
▁staggered	-11.3597
▁deposited	-11.3601
▁inhabited	-11.3602
▁procured	-11.3604
▁sufficed	-11.3606
▁sheath	-11.3607
▁melted	-11.3609
ject	-11.3611
▁sixth	-11.3614
▁weaker	-11.3615
▁sweetness	-11.3618
▁musician	-11.3619
▁reel	-11.3631
▁desk	-11.3632
▁shooting	-11.3637
take	-11.3639
▁crawled	-11.3642
oving	-11.3643
▁bay	-11.3647
▁traced	-11.3648
▁melt	-11.3666
▁warned	-11.3666
▁barely	-11.3673
▁struggled	-11.3675
chu	-11.3696
coming	-11.3701
▁lap	-11.3739
▁excite	-11.3775
▁whit	-11.3776
▁envelope	-11.3777
▁pronounce	-11.3777
▁resolve	-11.3777
▁logic	-11.3784
▁LI	-11.3786
▁rend	-11.3788
▁paint	-11.3788
▁abstract	-11.3793
glass	-11.3798
▁corrupt	-11.3803
▁blank	-11.3804
▁refresh	-11.3804
▁offend	-11.3809
▁Argive	-11.3811
▁February	-11.3811
▁PetitPicpus	-11.3811
▁Smollett	-11.3811
▁Toussaint	-11.3811
▁accurate	-11.3811
▁attorney	-11.3811
▁dialogue	-11.3811
▁forecastle	-11.3811
▁harvest	-11.3811
▁pilgrim	-11.3811
▁pursuing	-11.3811
▁revolve	-11.3811
▁striving	-11.3811
▁swore	-11.3811
▁ultimate	-11.3811
▁viscount	-11.3811
▁breach	-11.3811
▁cluster	-11.3811
▁glories	-11.3811
▁petition	-11.3811
▁relax	-11.3811
▁shovel	-11.3811
▁surpass	-11.3811
▁scandal	-11.3811
▁creep	-11.3811
▁diffus	-11.3811
▁raven	-11.3811
▁Rosings	-11.3811
▁shipmate	-11.3811
▁device	-11.3812
▁worm	-11.3812
▁undress	-11.3812
▁peak	-11.3812
▁merrily	-11.3812
▁carved	-11.3812
▁zeal	-11.3812
▁extinguished	-11.3812
▁hull	-11.3812
▁ordain	-11.3812
▁canvas	-11.3812
▁dismal	-11.3812
▁loath	-11.3813
rubbing	-11.3814
▁fishery	-11.3814
▁preach	-11.3815
▁frock	-11.3816
▁construction	-11.3816
▁survive	-11.3818
▁FOR	-11.3821
▁Thetis	-11.3822
▁pinch	-11.3824
▁courageous	-11.3824
▁succession	-11.3829
▁positively	-11.383
▁Homeric	-11.3831
▁halfway	-11.3832
▁involved	-11.3832
▁shaken	-11.3833
▁firmness	-11.3838
▁MAN	-11.3841
▁gentleness	-11.3845
▁witnesses	-11.3847
▁corresponding	-11.387
▁entangl	-11.388
▁welcomed	-11.3882
▁galloping	-11.3883
▁route	-11.3888
eign	-11.3891
▁metal	-11.3895
Do	-11.3897
▁knocking	-11.3897
▁finest	-11.3898
▁leaping	-11.3898
▁complaint	-11.3899
▁tools	-11.3909
arian	-11.3922
▁fulfill	-11.3929
▁decidedly	-11.3931
ique	-11.3933
▁shameful	-11.3937
21	-11.3949
though	-11.3953
She	-11.396
nov	-11.3991
itz	-11.3994
▁jug	-11.3998
white	-11.4002
matic	-11.4018
▁seventh	-11.4035
▁polite	-11.4038
shire	-11.4042
▁inquiring	-11.4043
▁abrupt	-11.4043
thought	-11.4052
▁America	-11.4054
▁pas	-11.4062
▁eighteen	-11.4063
▁confide	-11.4064
▁wrap	-11.4068
▁Carconte	-11.4068
▁FROM	-11.4068
▁Pfuel	-11.4068
▁Whitby	-11.4068
▁cliff	-11.4068
▁contribute	-11.4068
▁document	-11.4068
▁happier	-11.4068
▁incredible	-11.4068
▁leviathan	-11.4068
▁obligation	-11.4068
▁plague	-11.4068
▁reluctant	-11.4068
▁scruple	-11.4068
▁splendor	-11.4068
▁subsequent	-11.4068
▁supplies	-11.4068
▁tattered	-11.4068
▁tyranny	-11.4068
▁vexation	-11.4068
▁Duchess	-11.4068
▁piteous	-11.4068
▁unworthy	-11.4068
▁Friar	-11.4068
▁brood	-11.4068
▁conceit	-11.4068
▁scorch	-11.4068
▁bunch	-11.4068
▁casual	-11.4068
▁filth	-11.4068
▁nightfall	-11.4068
▁reform	-11.4068
▁Circe	-11.4068
▁Keep	-11.4068
▁charity	-11.4068
▁tactics	-11.4068
▁Argos	-11.4068
▁stump	-11.4068
▁blot	-11.4068
▁hinges	-11.4068
▁pacing	-11.4068
▁orphan	-11.4068
▁pledge	-11.4068
▁stifle	-11.4068
▁sideways	-11.4068
▁Master	-11.4068
▁confidential	-11.4069
▁modest	-11.4069
▁brat	-11.4069
▁rogue	-11.4069
▁confident	-11.407
▁ballroom	-11.407
▁Jack	-11.4071
▁performance	-11.4071
▁rub	-11.4072
▁Seine	-11.4072
▁abuse	-11.4073
▁attachment	-11.4074
▁Cra	-11.4077
▁rebel	-11.408
▁rap	-11.4081
▁Pope	-11.4083
▁Paul	-11.4085
down	-11.4092
▁assigned	-11.4101
▁carelessly	-11.4103
▁dismissed	-11.4109
▁harnessed	-11.4109
come	-11.4114
▁mob	-11.4125
▁wire	-11.4141
▁swayed	-11.4147
▁Off	-11.415
▁stuffed	-11.4152
itude	-11.4153
rope	-11.4154
▁tri	-11.4158
▁rider	-11.4178
▁San	-11.4182
position	-11.4188
▁Sit	-11.4207
colored	-11.4218
power	-11.4265
▁twist	-11.4284
▁adopt	-11.4284
▁swing	-11.429
▁plunge	-11.4296
fish	-11.4298
field	-11.4299
▁critic	-11.4308
chang	-11.4313
▁surviv	-11.4325
▁sew	-11.4327
▁intellect	-11.4331
▁April	-11.4331
▁Boulatruelle	-11.4331
▁Bourbon	-11.4331
▁Hippolyte	-11.4331
▁November	-11.4331
▁Peleus	-11.4331
▁Pylos	-11.4331
▁Renfield	-11.4331
▁Thodule	-11.4331
▁brigand	-11.4331
▁colossal	-11.4331
▁dishonour	-11.4331
▁dynasty	-11.4331
▁encamp	-11.4331
▁enchanted	-11.4331
▁enterprise	-11.4331
▁exasperat	-11.4331
▁excellence	-11.4331
▁idiot	-11.4331
▁indefinite	-11.4331
▁luminous	-11.4331
▁luxury	-11.4331
▁perplexity	-11.4331
▁ponderous	-11.4331
▁radiance	-11.4331
▁ridicule	-11.4331
▁romantic	-11.4331
▁sparrow	-11.4331
▁vapor	-11.4331
▁virtuous	-11.4331
▁whirlwind	-11.4331
▁architect	-11.4331
▁brook	-11.4331
▁constrain	-11.4331
▁hush	-11.4331
▁Diomed	-11.4331
▁hoofs	-11.4331
▁decay	-11.4331
▁desolate	-11.4331
▁huntsmen	-11.4331
▁illusion	-11.4331
▁animation	-11.4331
▁lungs	-11.4331
▁antique	-11.4331
▁Surely	-11.4331
▁Court	-11.4331
▁corse	-11.4331
▁moderate	-11.4332
▁Angel	-11.4332
▁heaved	-11.4334
▁disappearance	-11.4334
▁attire	-11.4337
▁legend	-11.4338
▁civility	-11.4341
▁Comte	-11.4341
▁Yo	-11.4341
▁alongside	-11.4343
▁modesty	-11.4345
▁reside	-11.4347
▁Bah	-11.4349
▁tame	-11.4349
INE	-11.4351
▁equality	-11.4352
▁jealousy	-11.4353
▁defined	-11.4354
▁Fire	-11.4358
▁sincerely	-11.4362
10	-11.4364
▁nobility	-11.4373
▁swinging	-11.4376
▁nodding	-11.4376
▁enabled	-11.4378
▁Lost	-11.4384
▁Won	-11.4388
▁painting	-11.4392
▁hailed	-11.4395
▁Young	-11.4401
▁Pot	-11.4402
▁stormy	-11.4403
▁troop	-11.4404
▁miller	-11.4417
▁nun	-11.4418
nouncing	-11.4427
▁thankful	-11.4429
▁Fate	-11.4434
mast	-11.4468
▁swan	-11.4483
ARD	-11.4494
▁blush	-11.4509
IST	-11.451
▁sq	-11.4517
cloth	-11.4535
God	-11.4541
▁exhaust	-11.4554
▁displeas	-11.4554
▁exclaim	-11.4555
▁ironical	-11.4593
▁teacher	-11.4593
▁snuff	-11.4601
▁Champmathieu	-11.4601
▁Chanvrerie	-11.4601
▁Suppose	-11.4601
▁Voltaire	-11.4601
▁WinniethePooh	-11.4601
▁aidedecamp	-11.4601
▁antechamber	-11.4601
▁dwelt	-11.4601
▁experiment	-11.4601
▁inevitably	-11.4601
▁intrigue	-11.4601
▁manuscript	-11.4601
▁pickaxe	-11.4601
▁populace	-11.4601
▁recompense	-11.4601
▁rubbish	-11.4601
▁schooner	-11.4601
▁unequal	-11.4601
▁wrought	-11.4601
▁Babet	-11.4601
▁blunder	-11.4601
▁seventeen	-11.4601
▁twentyfive	-11.4601
▁worry	-11.4601
▁Above	-11.4601
▁fisherman	-11.4601
▁strove	-11.4601
▁wield	-11.4601
▁adapt	-11.4601
▁Toulon	-11.4601
▁humming	-11.4601
▁nourish	-11.4601
▁clue	-11.4601
▁isolated	-11.4601
▁adjust	-11.4602
▁blackened	-11.4602
▁sobbing	-11.4602
▁basin	-11.4602
▁wilt	-11.4602
▁retrac	-11.4602
▁seemingly	-11.4603
▁split	-11.4603
▁Behold	-11.4603
▁gaily	-11.4603
▁pressure	-11.4604
▁tax	-11.4606
▁taper	-11.4607
▁Latin	-11.4607
▁treatment	-11.4608
▁ejaculated	-11.4608
▁leak	-11.461
▁Seven	-11.4612
▁Justine	-11.4616
▁solemnity	-11.4616
▁barn	-11.4617
▁highway	-11.4618
▁disappointed	-11.4619
▁park	-11.462
▁lookout	-11.462
▁honourable	-11.462
▁briskly	-11.4621
▁Ilyn	-11.4627
▁clay	-11.4635
▁borrowed	-11.4641
▁Must	-11.4642
▁oneself	-11.4649
▁100	-11.4649
▁greeting	-11.4652
▁payment	-11.4654
▁spar	-11.466
▁screaming	-11.4667
▁advised	-11.4668
▁infinitely	-11.4678
▁pressd	-11.4678
▁tenth	-11.4686
▁XVII	-11.4752
▁avenge	-11.4767
▁farmer	-11.4768
uction	-11.4772
compos	-11.4812
Saint	-11.4813
water	-11.4814
▁foi	-11.4821
▁congratulate	-11.4828
▁flush	-11.4832
Now	-11.4832
▁grieve	-11.4844
▁hesitate	-11.4844
▁dat	-11.4855
▁concentr	-11.4877
▁ox	-11.4879
▁Clearly	-11.4879
▁FIRST	-11.4879
▁Paradise	-11.4879
▁Pelides	-11.4879
▁adversary	-11.4879
▁challenge	-11.4879
▁cravat	-11.4879
▁delirium	-11.4879
▁diligence	-11.4879
▁eternity	-11.4879
▁grandmother	-11.4879
▁holiday	-11.4879
▁inevitable	-11.4879
▁insignificant	-11.4879
▁nowadays	-11.4879
▁nymph	-11.4879
▁occurrence	-11.4879
▁perception	-11.4879
▁population	-11.4879
▁proprietor	-11.4879
▁scholar	-11.4879
▁sepulchre	-11.4879
▁shawl	-11.4879
▁structure	-11.4879
▁Polish	-11.4879
▁composure	-11.4879
▁sugar	-11.4879
ological	-11.4879
▁flicker	-11.4879
▁jolly	-11.4879
▁suburb	-11.4879
▁transition	-11.4879
▁Major	-11.4879
▁drain	-11.4879
▁hoisted	-11.4879
▁pencil	-11.4879
▁geese	-11.4879
▁strive	-11.4879
▁kid	-11.488
▁spurs	-11.488
▁criticism	-11.488
▁residence	-11.488
▁section	-11.488
▁drone	-11.488
▁prick	-11.4881
▁Almost	-11.4881
▁Forster	-11.4881
▁Elba	-11.4881
▁smot	-11.4883
▁purity	-11.4887
▁duke	-11.4888
▁corruption	-11.4888
▁limp	-11.4889
▁realities	-11.489
▁interpretation	-11.489
▁development	-11.489
▁threaten	-11.4892
merged	-11.4893
▁bred	-11.4894
▁Hands	-11.4895
▁Prussian	-11.4895
▁Epi	-11.49
▁tries	-11.4901
▁exertion	-11.4903
▁dragon	-11.4904
▁inquiringly	-11.4906
bili	-11.4908
▁flashes	-11.4912
▁vividly	-11.4914
▁boiling	-11.4917
▁Over	-11.4922
▁overboard	-11.4924
▁churches	-11.4929
▁induced	-11.493
▁oar	-11.4982
kov	-11.5024
▁Rep	-11.5039
after	-11.5073
▁woo	-11.508
wheel	-11.5099
▁inhabit	-11.5117
▁reappear	-11.5117
▁discharge	-11.513
▁mingle	-11.513
▁incur	-11.5131
▁adore	-11.5139
▁frank	-11.514
▁complex	-11.5159
extinguish	-11.5164
▁Already	-11.5165
▁PARIS	-11.5165
▁President	-11.5165
▁abhor	-11.5165
▁abominable	-11.5165
▁august	-11.5165
▁benevolent	-11.5165
▁bonnet	-11.5165
▁concierge	-11.5165
▁desirable	-11.5165
▁escaping	-11.5165
▁everlasting	-11.5165
▁feminine	-11.5165
▁geometry	-11.5165
▁headquarters	-11.5165
▁judging	-11.5165
▁obedient	-11.5165
▁penetrating	-11.5165
▁profile	-11.5165
▁prominent	-11.5165
▁redoubled	-11.5165
▁refusing	-11.5165
▁salvation	-11.5165
▁vicomte	-11.5165
▁Athenian	-11.5165
▁Carlini	-11.5165
▁beseech	-11.5165
▁disconcert	-11.5165
▁exploit	-11.5165
▁garret	-11.5165
▁harbor	-11.5165
▁liquid	-11.5165
▁negro	-11.5165
▁vulture	-11.5165
▁gayety	-11.5165
▁vigil	-11.5165
▁Dieu	-11.5165
▁Ocean	-11.5165
▁inserted	-11.5165
▁crystal	-11.5165
▁supposition	-11.5165
▁pensive	-11.5165
▁barefoot	-11.5165
▁apron	-11.5166
▁strew	-11.5166
▁latitude	-11.5166
▁resentment	-11.5167
▁shave	-11.5172
▁Corsican	-11.5172
▁startling	-11.5174
▁majority	-11.5174
▁seventy	-11.5175
▁China	-11.5175
▁lick	-11.5177
▁advantageous	-11.5178
▁Today	-11.5179
▁deuce	-11.5179
▁abstraction	-11.5186
▁critical	-11.5189
▁frankly	-11.5189
▁suggestion	-11.5193
▁heartily	-11.5193
▁banished	-11.5199
▁deepest	-11.5214
▁Sam	-11.5221
▁latest	-11.5237
unk	-11.5242
stride	-11.5245
▁thoughtfully	-11.5253
iety	-11.5254
▁deposit	-11.5263
▁mystic	-11.5273
titude	-11.5299
ection	-11.5334
NE	-11.5342
Prince	-11.5393
pond	-11.5402
▁dismiss	-11.5411
▁harness	-11.5411
▁relieve	-11.5424
GE	-11.5425
train	-11.5439
▁historic	-11.5439
▁deprive	-11.5454
▁omit	-11.5457
▁indistinct	-11.5459
herkv	-11.5459
▁Adieu	-11.5459
▁Africa	-11.5459
▁Convent	-11.5459
▁Dolgorkov	-11.5459
▁Gaetano	-11.5459
▁Mercury	-11.5459
▁Naples	-11.5459
▁Oriental	-11.5459
▁Polemarchus	-11.5459
▁Precisely	-11.5459
▁Rucastle	-11.5459
▁Spada	-11.5459
▁Westenra	-11.5459
▁Weyrother	-11.5459
▁blossom	-11.5459
▁cabriolet	-11.5459
▁cartridges	-11.5459
▁crucifix	-11.5459
▁eccentric	-11.5459
▁emptied	-11.5459
▁involuntary	-11.5459
▁malice	-11.5459
▁paternal	-11.5459
▁petticoat	-11.5459
▁remedy	-11.5459
▁republic	-11.5459
▁repulse	-11.5459
▁responsibility	-11.5459
▁responsible	-11.5459
▁tragedy	-11.5459
▁warfare	-11.5459
▁welfare	-11.5459
▁access	-11.5459
▁hesitating	-11.5459
▁monkey	-11.5459
▁revelation	-11.5459
▁Consider	-11.5459
▁supple	-11.5459
▁trail	-11.5459
▁Christmas	-11.5459
▁gush	-11.5459
▁inference	-11.5459
plan	-11.5459
▁hired	-11.5459
▁rifle	-11.5459
▁stalk	-11.5459
▁ardour	-11.5459
▁bribe	-11.5459
▁Greenland	-11.5459
▁rampart	-11.5459
▁muddy	-11.546
▁gust	-11.5461
▁lamb	-11.5461
▁Gray	-11.5462
armed	-11.5462
▁dIf	-11.5462
▁errand	-11.5463
▁passport	-11.5464
mming	-11.5466
▁reassured	-11.5471
▁elevated	-11.5472
▁collection	-11.5473
plied	-11.5473
▁frog	-11.5473
▁Instead	-11.5476
▁muttering	-11.5478
▁expose	-11.5479
▁smashed	-11.548
▁haul	-11.548
▁peculiarity	-11.5484
▁improved	-11.5487
▁constituted	-11.5492
▁occasional	-11.5494
▁avert	-11.5496
mini	-11.5499
▁lent	-11.5502
▁Try	-11.5506
▁Chien	-11.5515
▁coal	-11.5521
▁sleepless	-11.5521
▁expos	-11.5561
IVE	-11.5566
▁smi	-11.5602
agged	-11.5641
close	-11.5697
scribe	-11.5717
▁justify	-11.5724
▁communicate	-11.5727
▁incline	-11.5728
▁incessant	-11.5737
▁thorough	-11.5737
uick	-11.5747
▁drama	-11.5761
▁bankrupt	-11.5762
JEAN	-11.5762
▁Boguchrovo	-11.5762
▁Calypso	-11.5762
▁Carnival	-11.5762
▁Euryclea	-11.5762
▁Hertfordshire	-11.5762
▁Ichabod	-11.5762
▁Steelkilt	-11.5762
▁batteries	-11.5762
▁condescend	-11.5762
▁conversing	-11.5762
▁corporal	-11.5762
▁delicious	-11.5762
▁dispatch	-11.5762
▁eloquence	-11.5762
▁excavat	-11.5762
▁greatcoat	-11.5762
▁inconvenience	-11.5762
▁ineffable	-11.5762
▁knelt	-11.5762
▁malicious	-11.5762
▁perceptible	-11.5762
▁serenity	-11.5762
▁specimen	-11.5762
▁subordinate	-11.5762
▁syllable	-11.5762
▁treachery	-11.5762
▁trifling	-11.5762
▁uplifted	-11.5762
▁vapour	-11.5762
▁vigour	-11.5762
▁wrench	-11.5762
▁Second	-11.5762
▁beauties	-11.5762
▁degrad	-11.5762
▁insolent	-11.5762
▁passerby	-11.5762
▁thrill	-11.5762
▁Golden	-11.5762
▁Honor	-11.5762
▁pulse	-11.5762
▁random	-11.5762
▁Utopia	-11.5762
▁calf	-11.5762
▁drums	-11.5762
▁exterminat	-11.5762
▁Woe	-11.5762
▁woollen	-11.5762
▁pump	-11.5762
▁tolerable	-11.5762
▁Everybody	-11.5762
▁Arab	-11.5762
▁XIX	-11.5762
▁debate	-11.5762
▁margin	-11.5762
▁Pardon	-11.5763
▁faded	-11.5763
▁Monday	-11.5763
▁sabre	-11.5764
▁Philippe	-11.5764
▁stockade	-11.5764
▁Know	-11.5764
▁Ladyship	-11.5765
▁afar	-11.5765
▁portress	-11.5765
▁continuous	-11.5765
▁nineteenth	-11.5766
▁Time	-11.5767
▁spoon	-11.5767
▁kneeling	-11.5768
▁PRO	-11.5768
▁considerably	-11.5768
▁regretted	-11.5769
▁boom	-11.577
▁deem	-11.577
▁omen	-11.5771
▁loom	-11.5771
▁foreseen	-11.5771
NT	-11.5772
▁Order	-11.5773
▁packet	-11.5775
▁pope	-11.5777
▁Back	-11.5781
▁mattress	-11.5781
▁deliberately	-11.5781
▁epic	-11.5785
UM	-11.5785
▁meditated	-11.5789
▁hateful	-11.579
▁bled	-11.5792
▁totally	-11.5795
▁lair	-11.5796
▁tossing	-11.5798
▁Cho	-11.5801
▁dA	-11.5805
▁homeward	-11.5808
Hallo	-11.5814
▁usher	-11.5815
▁Letter	-11.5819
say	-11.5829
▁affi	-11.5829
▁Mess	-11.5866
▁dialectic	-11.589
why	-11.5918
ONT	-11.6021
LY	-11.6024
▁constitute	-11.6039
▁precede	-11.604
Let	-11.6044
▁Sparta	-11.6059
▁memor	-11.6061
▁Dardan	-11.6074
rchbishop	-11.6074
▁Alexevich	-11.6074
▁Arakchev	-11.6074
▁Barrire	-11.6074
▁Davout	-11.6074
▁Dessalles	-11.6074
▁Geneva	-11.6074
▁Jud	-11.6074
▁Lavrshka	-11.6074
▁Pacific	-11.6074
▁Trelawney	-11.6074
▁Virgin	-11.6074
▁Wolfshiem	-11.6074
▁blubber	-11.6074
▁caution	-11.6074
▁circulat	-11.6074
▁clenched	-11.6074
▁clump	-11.6074
▁entrusted	-11.6074
▁equivalent	-11.6074
▁gliding	-11.6074
▁haggard	-11.6074
▁hammock	-11.6074
▁malady	-11.6074
▁mathematical	-11.6074
▁passenger	-11.6074
▁pausing	-11.6074
▁perpendicular	-11.6074
▁phenomenon	-11.6074
▁promising	-11.6074
▁receipt	-11.6074
▁secrecy	-11.6074
▁smuggler	-11.6074
▁temporary	-11.6074
▁terrific	-11.6074
▁vegetable	-11.6074
▁Finally	-11.6074
▁cardinal	-11.6074
▁committee	-11.6074
▁crooked	-11.6074
▁gilded	-11.6074
▁intensity	-11.6074
▁shrink	-11.6074
▁superintend	-11.6074
▁vicious	-11.6074
▁fishermen	-11.6074
▁intolerable	-11.6074
▁phase	-11.6074
▁whim	-11.6074
▁calche	-11.6074
▁indication	-11.6074
▁repast	-11.6074
▁northern	-11.6074
▁picturesque	-11.6075
▁unfolded	-11.6075
▁loyal	-11.6075
▁baker	-11.6075
▁rapture	-11.6075
▁soothe	-11.6075
▁proclaim	-11.6075
▁Nature	-11.6076
▁slipping	-11.6076
▁pitied	-11.6076
▁riddle	-11.6076
▁western	-11.6076
▁leaf	-11.6076
▁tact	-11.6077
▁sparkled	-11.6078
▁commencement	-11.6078
▁dictate	-11.6079
▁thyself	-11.608
▁barred	-11.6081
▁Thom	-11.6081
▁haze	-11.6082
▁mice	-11.6083
▁hunters	-11.6086
▁fashionable	-11.6089
▁orator	-11.609
▁housekeeper	-11.609
▁massive	-11.6092
▁dishes	-11.6094
▁secretary	-11.6095
▁anyhow	-11.6102
▁attraction	-11.6105
▁beforehand	-11.6107
▁justified	-11.6111
▁whaleman	-11.6122
▁workmen	-11.6124
▁Park	-11.6142
▁fortress	-11.618
▁LA	-11.6187
penny	-11.6208
▁mole	-11.6218
were	-11.6271
▁renounce	-11.6325
Pooh	-11.6331
Pierre	-11.6331
▁gravel	-11.6335
▁coup	-11.6342
▁borrow	-11.6349
▁stagger	-11.6349
just	-11.6352
▁conclude	-11.6362
▁buckle	-11.637
▁positive	-11.6372
▁boil	-11.6375
▁nineteen	-11.6392
▁snap	-11.6397
▁Twenty	-11.6397
▁indirect	-11.6397
▁Fitzwilliam	-11.6397
▁Frederick	-11.6397
▁Lestrade	-11.6397
▁Montague	-11.6397
▁Probably	-11.6397
▁Tuileries	-11.6397
▁Wizard	-11.6397
▁appropriate	-11.6397
▁bachelor	-11.6397
▁bridegroom	-11.6397
▁cathedral	-11.6397
▁clumsy	-11.6397
▁collapse	-11.6397
▁crutch	-11.6397
▁disciple	-11.6397
▁eyelids	-11.6397
▁interrogate	-11.6397
▁intimacy	-11.6397
▁lHo	-11.6397
▁moustache	-11.6397
▁nocturnal	-11.6397
▁notwithstanding	-11.6397
▁outstretched	-11.6397
▁precision	-11.6397
▁propriety	-11.6397
▁rabbit	-11.6397
▁rejoicing	-11.6397
▁superfluous	-11.6397
▁thunderbolt	-11.6397
▁Chamber	-11.6397
▁Laigle	-11.6397
▁Palace	-11.6397
▁carbine	-11.6397
▁choked	-11.6397
▁insolence	-11.6397
▁senior	-11.6397
▁brink	-11.6397
▁chicken	-11.6397
▁dispens	-11.6397
▁tidings	-11.6397
▁Forgive	-11.6397
▁usurper	-11.6397
▁valour	-11.6397
▁History	-11.6397
▁engine	-11.6397
▁shalt	-11.6397
▁tackle	-11.6397
▁James	-11.6397
▁tutor	-11.6397
▁waggon	-11.6397
▁excel	-11.6397
▁scamp	-11.6397
▁visage	-11.6397
▁forbear	-11.6397
▁menacing	-11.6398
▁Close	-11.6398
▁dressingroom	-11.6398
▁regulations	-11.6398
▁tapped	-11.6399
▁Road	-11.6399
▁bigger	-11.64
▁crackling	-11.6402
▁Hansel	-11.6404
▁void	-11.6404
▁blanket	-11.6407
▁utterance	-11.6408
▁European	-11.6412
▁department	-11.6416
▁butcher	-11.642
▁Idas	-11.6421
▁withdrawn	-11.6421
▁mien	-11.6421
▁footmen	-11.6423
▁Rene	-11.6426
▁Mayor	-11.6441
▁sacrific	-11.6482
▁instruction	-11.6521
▁fain	-11.6522
▁signify	-11.6544
▁Mei	-11.6598
fallen	-11.6664
▁waver	-11.668
hung	-11.6689
▁pierce	-11.6696
BY	-11.6697
▁rouse	-11.6699
▁brisk	-11.6706
▁Austria	-11.6711
▁quest	-11.6726
MARIUS	-11.673
▁Exeunt	-11.673
▁Favourite	-11.673
▁HeatRay	-11.673
▁Serene	-11.673
▁Snowdrop	-11.673
▁UnDead	-11.673
▁Wilmore	-11.673
▁admirably	-11.673
▁afresh	-11.673
▁asylum	-11.673
▁benevolence	-11.673
▁culprit	-11.673
▁deliberation	-11.673
▁dissatisfied	-11.673
▁entitled	-11.673
▁ethereal	-11.673
▁expiration	-11.673
▁flukes	-11.673
▁granite	-11.673
▁identical	-11.673
▁impossibility	-11.673
▁indispensable	-11.673
▁infamous	-11.673
▁knapsack	-11.673
▁mysteries	-11.673
▁overcoat	-11.673
▁preoccupied	-11.673
▁prosperity	-11.673
▁prudence	-11.673
▁rapturous	-11.673
▁representative	-11.673
▁rigging	-11.673
▁satisfactory	-11.673
▁shabby	-11.673
▁shaggy	-11.673
▁treacherous	-11.673
▁underneath	-11.673
▁varied	-11.673
▁whiskers	-11.673
▁worried	-11.673
▁Society	-11.673
▁annihilat	-11.673
▁crouching	-11.673
▁descried	-11.673
▁dishonor	-11.673
▁embark	-11.673
▁enjoin	-11.673
▁fiction	-11.673
▁offensive	-11.673
▁recruit	-11.673
▁sensitive	-11.673
▁telegram	-11.673
iazza	-11.673
▁Sleep	-11.673
▁compact	-11.673
▁reckless	-11.673
▁central	-11.673
▁parlor	-11.673
▁chaos	-11.673
▁stool	-11.673
▁birch	-11.673
▁gnaw	-11.673
▁affright	-11.673
▁repay	-11.673
▁aperture	-11.673
▁assuming	-11.673
▁caprice	-11.673
▁crazy	-11.673
▁courtesy	-11.673
▁snuffbox	-11.673
▁horizontal	-11.673
▁Arras	-11.6731
▁goblet	-11.6731
▁chimneypiece	-11.6731
▁writh	-11.6731
▁ragged	-11.6731
▁Marshal	-11.6732
▁bidding	-11.6732
▁truce	-11.6732
▁humour	-11.6732
▁alien	-11.6733
▁barren	-11.6733
▁spray	-11.6733
▁Phrygian	-11.6734
▁alighted	-11.6734
▁stray	-11.6735
▁correspondent	-11.6735
END	-11.6738
▁resignation	-11.6738
▁Help	-11.674
▁Egg	-11.674
▁eve	-11.6743
▁Tien	-11.6745
▁morality	-11.6746
▁starry	-11.6746
▁liable	-11.6749
▁mire	-11.6754
▁Beau	-11.6757
▁buckler	-11.6758
▁brim	-11.6779
▁congratulat	-11.6792
▁Haste	-11.6809
▁crop	-11.681
▁conqueror	-11.6814
▁Mark	-11.6819
▁tug	-11.6858
▁steed	-11.688
came	-11.6978
vengeful	-11.7008
Why	-11.7012
making	-11.7016
▁perus	-11.7021
▁stamp	-11.7028
▁hind	-11.7028
▁include	-11.704
▁accuse	-11.7041
▁devote	-11.7041
▁release	-11.7043
▁replace	-11.7053
▁foresee	-11.7065
▁According	-11.7075
▁Believe	-11.7075
▁Boulevard	-11.7075
▁Bourgh	-11.7075
▁Copyright	-11.7075
▁Dracula	-11.7075
▁Either	-11.7075
▁Enough	-11.7075
▁Hercules	-11.7075
▁Joseph	-11.7075
▁Journal	-11.7075
▁McCarthy	-11.7075
▁Sinbad	-11.7075
▁accursed	-11.7075
▁ambassador	-11.7075
▁ambitious	-11.7075
▁approval	-11.7075
▁banknotes	-11.7075
▁censure	-11.7075
▁cobbler	-11.7075
▁consternation	-11.7075
▁cushion	-11.7075
▁distorted	-11.7075
▁earthquake	-11.7075
▁expedient	-11.7075
▁explore	-11.7075
▁felicity	-11.7075
▁harmonious	-11.7075
▁hazard	-11.7075
▁horribly	-11.7075
▁identity	-11.7075
▁inexplicable	-11.7075
▁intelligible	-11.7075
▁intoxicated	-11.7075
▁intrepid	-11.7075
▁magnitude	-11.7075
▁metaphor	-11.7075
▁persuasion	-11.7075
▁plough	-11.7075
▁recurred	-11.7075
▁snake	-11.7075
▁subdued	-11.7075
▁sullen	-11.7075
▁suppliant	-11.7075
▁tyrannical	-11.7075
▁undoubtedly	-11.7075
▁unhappiness	-11.7075
▁Square	-11.7075
▁Twice	-11.7075
▁entail	-11.7075
▁estimate	-11.7075
▁paradox	-11.7075
▁convoy	-11.7075
▁solution	-11.7075
▁chorus	-11.7075
▁turnkey	-11.7075
▁pillar	-11.7075
▁Cocles	-11.7075
▁artisan	-11.7075
▁squall	-11.7075
▁Diana	-11.7075
▁alternate	-11.7075
▁sincerity	-11.7075
▁spindle	-11.7075
▁straightened	-11.7075
▁efface	-11.7075
▁accost	-11.7076
▁bustle	-11.7076
▁evok	-11.7076
▁proving	-11.7076
▁fraud	-11.7076
▁Saturn	-11.7076
▁digging	-11.7077
▁disclose	-11.7077
▁gaunt	-11.7077
▁Platonic	-11.7077
▁reap	-11.7077
▁spacious	-11.7078
▁deign	-11.7078
▁India	-11.7079
▁northward	-11.7079
▁cruelty	-11.7081
▁perilous	-11.7081
▁grandson	-11.7081
▁partake	-11.7082
▁artilleryman	-11.7082
▁rustic	-11.7082
▁undertaking	-11.7082
▁quitting	-11.7083
▁Serv	-11.7084
▁legislator	-11.7084
▁gang	-11.7085
▁curling	-11.7086
▁hoary	-11.7087
▁curled	-11.7088
▁hump	-11.7092
▁shant	-11.7093
▁infect	-11.7117
▁representation	-11.712
▁epi	-11.7124
▁logical	-11.7157
▁disdainful	-11.7212
▁aveng	-11.7217
▁Beside	-11.7244
igni	-11.7275
bank	-11.7366
crew	-11.7366
court	-11.7375
▁caus	-11.738
beam	-11.7384
▁prolong	-11.7387
▁Rose	-11.7389
▁traverse	-11.7398
▁acquire	-11.7398
▁oblige	-11.7398
▁resume	-11.7398
▁dispose	-11.7402
▁speculat	-11.7405
▁mechanical	-11.7408
▁compose	-11.7411
▁Prussia	-11.7412
dicating	-11.7432
▁Bahorel	-11.7432
▁Beyond	-11.7432
▁Imperial	-11.7432
▁Jacopo	-11.7432
▁Sarpedon	-11.7432
▁XXVI	-11.7432
▁antiquity	-11.7432
▁cannibal	-11.7432
▁colleague	-11.7432
▁companies	-11.7432
▁conscientious	-11.7432
▁definition	-11.7432
▁discreet	-11.7432
▁enquiry	-11.7432
▁esaul	-11.7432
▁grandpapa	-11.7432
▁happiest	-11.7432
▁hecatomb	-11.7432
▁illustration	-11.7432
▁including	-11.7432
▁insufficient	-11.7432
▁invariably	-11.7432
▁lugubrious	-11.7432
▁miraculous	-11.7432
▁petrified	-11.7432
▁photograph	-11.7432
▁stupefied	-11.7432
▁sworn	-11.7432
▁voluptuous	-11.7432
▁Munchkin	-11.7432
▁administer	-11.7432
▁ancestor	-11.7432
▁college	-11.7432
▁discord	-11.7432
▁disquiet	-11.7432
▁exaggerate	-11.7432
▁intercept	-11.7432
▁shipwreck	-11.7432
▁snort	-11.7432
▁surmise	-11.7432
▁yacht	-11.7432
▁Vlna	-11.7432
▁consort	-11.7432
▁furrow	-11.7432
▁violet	-11.7432
▁Until	-11.7432
▁impending	-11.7432
LUME	-11.7432
▁commend	-11.7432
▁cooper	-11.7432
▁wheat	-11.7432
▁adieu	-11.7432
▁partition	-11.7432
▁combatants	-11.7433
▁comply	-11.7433
▁brightened	-11.7433
▁olive	-11.7433
▁demonstrat	-11.7433
▁relics	-11.7433
▁basis	-11.7433
▁tendency	-11.7433
▁candid	-11.7433
▁composition	-11.7433
▁quotes	-11.7433
▁spinning	-11.7433
▁ransom	-11.7434
▁alert	-11.7434
▁omitted	-11.7435
▁Makr	-11.7435
▁Thomas	-11.7435
▁execute	-11.7435
▁miseries	-11.7436
▁clash	-11.7436
▁Diary	-11.7437
▁elect	-11.7438
AVE	-11.7439
▁management	-11.744
▁Light	-11.744
▁entreaties	-11.744
▁mound	-11.744
▁oligarchy	-11.744
▁bump	-11.7442
▁parish	-11.7443
▁hardship	-11.7444
▁background	-11.7444
▁Bible	-11.7444
▁Exit	-11.7448
▁allowance	-11.7448
▁outrage	-11.745
▁interruption	-11.7452
▁Capn	-11.7452
▁laden	-11.7472
▁Clair	-11.7528
▁Kill	-11.7539
shaped	-11.754
▁provision	-11.7562
▁nerve	-11.7604
▁historian	-11.7605
ASS	-11.7609
▁Add	-11.7609
▁absentminded	-11.7612
▁dipp	-11.7671
▁vote	-11.7702
▁rustle	-11.7707
claim	-11.7734
horse	-11.774
▁assign	-11.7755
▁improve	-11.7759
▁democratic	-11.7764
▁Certain	-11.7778
▁extra	-11.7802
▁December	-11.7803
▁Dunysha	-11.7803
▁Idomeneus	-11.7803
▁Ivnovich	-11.7803
▁Scarcely	-11.7803
▁Scotland	-11.7803
▁accuracy	-11.7803
▁anticipation	-11.7803
▁barbarous	-11.7803
▁choking	-11.7803
▁circular	-11.7803
▁commotion	-11.7803
▁conspicuous	-11.7803
▁dignified	-11.7803
▁disposal	-11.7803
▁elegance	-11.7803
▁envious	-11.7803
▁imaginary	-11.7803
▁industry	-11.7803
▁languid	-11.7803
▁muffled	-11.7803
▁policy	-11.7803
▁scientific	-11.7803
▁soothing	-11.7803
▁suicide	-11.7803
▁unlucky	-11.7803
▁vacant	-11.7803
▁Follow	-11.7803
▁Glaucus	-11.7803
▁aristocratic	-11.7803
▁chemist	-11.7803
▁doctrine	-11.7803
▁drench	-11.7803
▁eclipse	-11.7803
▁exciting	-11.7803
▁furnace	-11.7803
▁imitator	-11.7803
▁interposed	-11.7803
▁naviga	-11.7803
▁rippl	-11.7803
▁substitute	-11.7803
▁surgeon	-11.7803
indebted	-11.7803
▁Blanc	-11.7803
▁blond	-11.7803
▁forgetfulness	-11.7803
▁metallic	-11.7803
▁reaction	-11.7803
▁reverence	-11.7803
▁snug	-11.7803
▁shady	-11.7803
▁Legion	-11.7803
▁Opera	-11.7803
▁leeward	-11.7803
▁southern	-11.7803
▁martyr	-11.7803
▁snapped	-11.7803
▁ravine	-11.7803
▁histories	-11.7803
▁Atreus	-11.7803
▁cheap	-11.7803
▁anoint	-11.7803
▁ruling	-11.7803
▁sharing	-11.7803
▁prior	-11.7803
ENCE	-11.7803
▁endowed	-11.7803
▁Morgan	-11.7803
▁vase	-11.7803
▁Turkey	-11.7803
▁noisy	-11.7804
▁schoolmaster	-11.7804
▁carcase	-11.7804
▁peal	-11.7804
▁Author	-11.7804
▁Boville	-11.7804
▁tripod	-11.7805
▁tribe	-11.7805
▁inheritance	-11.7805
▁indulgence	-11.7805
▁Arabian	-11.7806
▁treatise	-11.7806
▁Dante	-11.7807
▁Nobody	-11.7807
▁attractive	-11.7807
▁orange	-11.7808
▁slay	-11.7808
▁revolutionary	-11.781
▁ninety	-11.7811
▁attendance	-11.7811
▁consistent	-11.7812
▁Egyptian	-11.7812
▁refreshment	-11.7814
▁hive	-11.7816
▁entertainment	-11.7816
▁factory	-11.7816
assuring	-11.782
▁plight	-11.7821
▁vous	-11.7831
▁assertion	-11.7834
▁diplomatic	-11.7855
▁wool	-11.7873
▁doubl	-11.7945
case	-11.795
▁stair	-11.7994
▁popp	-11.8008
▁punch	-11.801
WHA	-11.8082
French	-11.8121
CHAPTER	-11.8121
giving	-11.8121
foot	-11.8122
nothing	-11.8122
book	-11.8134
▁irritat	-11.814
▁meditate	-11.8152
▁derive	-11.8153
▁deliberate	-11.8163
▁villa	-11.8175
▁Grete	-11.8183
▁Aegisthus	-11.8187
▁Chanticleer	-11.8187
▁Cucumetto	-11.8187
▁Daggoo	-11.8187
▁Francis	-11.8187
▁Hougomont	-11.8187
▁Mediterranean	-11.8187
▁Nicolette	-11.8187
▁Otrdnoe	-11.8187
▁Prouvaire	-11.8187
▁Restoration	-11.8187
▁SaintAntoine	-11.8187
▁abundance	-11.8187
▁accomplice	-11.8187
▁apprehend	-11.8187
▁bouquet	-11.8187
▁brazier	-11.8187
▁circuit	-11.8187
▁conflagration	-11.8187
▁cruising	-11.8187
▁culture	-11.8187
▁discretion	-11.8187
▁dividing	-11.8187
▁explosion	-11.8187
▁faubourg	-11.8187
▁foliage	-11.8187
▁fragrant	-11.8187
▁frozen	-11.8187
▁horrified	-11.8187
▁imperceptible	-11.8187
▁inexorable	-11.8187
▁infallible	-11.8187
▁lunatic	-11.8187
▁pitiless	-11.8187
▁producing	-11.8187
▁pucker	-11.8187
▁recognition	-11.8187
▁remnant	-11.8187
▁revolving	-11.8187
▁stubborn	-11.8187
▁sympathetic	-11.8187
▁tilbury	-11.8187
▁ungrateful	-11.8187
▁yawning	-11.8187
▁disinterested	-11.8187
▁dreary	-11.8187
▁emerging	-11.8187
▁literally	-11.8187
▁maxim	-11.8187
▁persecut	-11.8187
▁surmounted	-11.8187
▁Further	-11.8187
▁enraged	-11.8187
▁genial	-11.8187
▁imperious	-11.8187
▁ravish	-11.8187
▁violin	-11.8187
▁chuck	-11.8187
▁courteous	-11.8187
▁mirth	-11.8187
▁postilion	-11.8187
▁Scene	-11.8187
▁twin	-11.8187
▁busily	-11.8187
▁Ilgin	-11.8187
▁claws	-11.8187
▁gross	-11.8188
▁Samsa	-11.8188
▁sulk	-11.8188
▁doubloon	-11.8188
▁Water	-11.8188
▁hidingplace	-11.8188
▁nook	-11.8188
▁oracle	-11.8188
▁feign	-11.8188
▁interference	-11.8189
▁forsake	-11.8189
▁dramatic	-11.8189
▁Rap	-11.8189
▁fray	-11.8189
▁jack	-11.819
▁gloomily	-11.8191
▁rustling	-11.8191
▁adher	-11.8192
▁lounge	-11.8192
▁Draw	-11.8193
▁reek	-11.8193
▁collective	-11.8194
▁hip	-11.8194
▁peculiarities	-11.8196
▁profitable	-11.8196
▁favorable	-11.8199
▁remainder	-11.8199
▁intersect	-11.8203
▁Tung	-11.8204
▁strap	-11.8204
PAR	-11.8238
ordered	-11.8342
specially	-11.8397
minded	-11.8412
Natsha	-11.8521
year	-11.8523
▁connect	-11.8528
rgon	-11.8534
▁celebrat	-11.854
▁morn	-11.8544
▁banish	-11.8544
▁puzzle	-11.8552
▁define	-11.8552
vidently	-11.8586
▁harp	-11.8587
▁Ermlov	-11.8587
▁Feuilly	-11.8587
▁Governor	-11.8587
▁Hucheloup	-11.8587
▁Immediately	-11.8587
▁MontSaintJean	-11.8587
▁Shevrdino	-11.8587
▁Shinshn	-11.8587
▁Welcome	-11.8587
▁Willarski	-11.8587
▁Yaochen	-11.8587
▁ammunition	-11.8587
▁analysis	-11.8587
▁appalling	-11.8587
▁arithmetic	-11.8587
▁astronomy	-11.8587
▁buccaneer	-11.8587
▁clergy	-11.8587
▁decorated	-11.8587
▁eloquent	-11.8587
▁feebly	-11.8587
▁grapes	-11.8587
▁grudge	-11.8587
▁illumined	-11.8587
▁infamy	-11.8587
▁intermediate	-11.8587
▁intoxication	-11.8587
▁introducing	-11.8587
▁loophole	-11.8587
▁magnificence	-11.8587
▁orchestra	-11.8587
▁parlour	-11.8587
▁pavilion	-11.8587
▁perplexed	-11.8587
▁primitive	-11.8587
▁repulsive	-11.8587
▁separation	-11.8587
▁stepmother	-11.8587
▁stratagem	-11.8587
▁supernatural	-11.8587
▁tapping	-11.8587
▁transparent	-11.8587
▁trivial	-11.8587
▁uneasily	-11.8587
▁wreath	-11.8587
▁Heffalump	-11.8587
▁Thursday	-11.8587
▁bequeath	-11.8587
▁concert	-11.8587
▁discontent	-11.8587
▁disobey	-11.8587
▁glimmer	-11.8587
▁independence	-11.8587
▁siege	-11.8587
▁supplicat	-11.8587
▁umbrella	-11.8587
▁Silence	-11.8587
▁enquire	-11.8587
▁hydra	-11.8587
▁robust	-11.8587
▁blunt	-11.8587
▁garage	-11.8587
▁Garden	-11.8587
▁Safe	-11.8587
▁settling	-11.8587
▁Bridge	-11.8587
▁infancy	-11.8587
▁tedious	-11.8587
splinter	-11.8588
▁peck	-11.8588
▁apology	-11.8588
▁orchard	-11.8588
▁Elsie	-11.8588
▁uprising	-11.8588
▁Open	-11.8588
▁scann	-11.8588
▁pondered	-11.8588
▁mainmast	-11.8588
▁transfer	-11.8589
▁grimace	-11.8589
asmuch	-11.8589
▁winning	-11.8589
▁prescribed	-11.8589
▁thorn	-11.859
▁Mouse	-11.859
▁Turkish	-11.859
▁clang	-11.859
▁rye	-11.8591
▁compress	-11.8591
▁whaleboat	-11.8592
▁pantry	-11.8592
▁creator	-11.8592
▁submitted	-11.8592
▁trampled	-11.8593
▁laborious	-11.8593
▁declaration	-11.8593
varying	-11.8594
▁cork	-11.8594
▁eighteenth	-11.8594
▁heifer	-11.8595
▁Deep	-11.8596
▁Yeh	-11.8597
▁earlie	-11.8608
gorge	-11.8613
▁gull	-11.8614
▁Fear	-11.8643
▁300	-11.8679
fitting	-11.873
▁declar	-11.8822
EST	-11.8883
body	-11.8889
▁clappe	-11.889
knife	-11.8938
Good	-11.8938
would	-11.896
▁precipitate	-11.8968
▁involve	-11.8969
▁Whil	-11.8989
▁Egypt	-11.8993
▁Direct	-11.9004
▁bivouac	-11.9004
sensibly	-11.9004
▁Agatha	-11.9004
▁Cephalus	-11.9004
▁Colosseum	-11.9004
▁Doubtless	-11.9004
▁Drydens	-11.9004
▁Fedallah	-11.9004
▁Fortunately	-11.9004
▁Freemason	-11.9004
▁January	-11.9004
▁Krmlin	-11.9004
▁Lawrence	-11.9004
▁Mondtour	-11.9004
▁Platn	-11.9004
▁Polydamas	-11.9004
▁Ssuma	-11.9004
▁Timkhin	-11.9004
▁admiring	-11.9004
▁applause	-11.9004
▁assailants	-11.9004
▁athwart	-11.9004
▁breeches	-11.9004
▁brigade	-11.9004
▁compromise	-11.9004
▁demolish	-11.9004
▁dripping	-11.9004
▁edifice	-11.9004
▁engulf	-11.9004
▁episode	-11.9004
▁expanse	-11.9004
▁forfeit	-11.9004
▁hypnoti	-11.9004
▁imagining	-11.9004
▁impenetrable	-11.9004
▁inexpressibl	-11.9004
▁labyrinth	-11.9004
▁legitimate	-11.9004
▁manufacture	-11.9004
▁narrate	-11.9004
▁negative	-11.9004
▁negotiat	-11.9004
▁proclamation	-11.9004
▁pyramid	-11.9004
▁refulgent	-11.9004
▁repetition	-11.9004
▁ruddy	-11.9004
▁slammed	-11.9004
▁squeak	-11.9004
▁superstitious	-11.9004
▁suspense	-11.9004
▁terrestrial	-11.9004
▁unaccountable	-11.9004
▁unfamiliar	-11.9004
▁Cretan	-11.9004
▁Frank	-11.9004
▁crisis	-11.9004
▁cuirassiers	-11.9004
▁embodi	-11.9004
▁encircl	-11.9004
▁enclosed	-11.9004
▁expend	-11.9004
▁morose	-11.9004
▁pitiful	-11.9004
▁relapse	-11.9004
▁retiring	-11.9004
▁riveted	-11.9004
▁streak	-11.9004
▁strode	-11.9004
▁unaware	-11.9004
▁vagabond	-11.9004
▁veneration	-11.9004
▁click	-11.9004
▁fiddle	-11.9004
▁invasion	-11.9004
▁joking	-11.9004
▁pathetic	-11.9004
▁Devil	-11.9004
▁conform	-11.9004
▁insanity	-11.9004
▁depression	-11.9004
▁speck	-11.9004
▁downcast	-11.9004
▁repute	-11.9004
▁naught	-11.9004
▁Sophist	-11.9004
▁Austen	-11.9004
▁plait	-11.9004
▁paved	-11.9004
▁blend	-11.9004
▁wrest	-11.9004
▁jolt	-11.9004
▁chisel	-11.9004
▁darkened	-11.9004
▁Athens	-11.9005
▁incense	-11.9005
▁statesman	-11.9005
▁socket	-11.9006
▁gasping	-11.9006
▁hostess	-11.9006
▁annoyance	-11.9007
▁Club	-11.9007
▁quoted	-11.9008
▁anchorage	-11.9008
▁syn	-11.9008
▁Round	-11.901
▁troublesome	-11.901
▁available	-11.901
▁comfortably	-11.901
▁parson	-11.901
▁parade	-11.901
▁Grace	-11.9011
▁sittingroom	-11.9011
▁theories	-11.9011
pulsion	-11.9014
▁Fair	-11.9018
▁preside	-11.9019
▁fret	-11.9023
▁accomplishment	-11.9023
AIR	-11.9025
bearer	-11.9027
franc	-11.9032
▁lapse	-11.9104
cited	-11.9278
▁compar	-11.9302
grown	-11.9373
BOOK	-11.9373
flower	-11.9373
from	-11.9373
▁establish	-11.9388
▁suspend	-11.9391
▁illuminat	-11.9392
▁Hippo	-11.9439
districtattorney	-11.9439
▁Antilochus	-11.9439
▁Danube	-11.9439
▁Dormouse	-11.9439
▁Drubetsky	-11.9439
▁Farewell	-11.9439
▁Frankenstein	-11.9439
▁Friday	-11.9439
▁Gorbeau	-11.9439
▁Magnon	-11.9439
▁Popolo	-11.9439
▁Pvlograd	-11.9439
▁SECOND	-11.9439
▁Telynin	-11.9439
▁Wednesday	-11.9439
▁Whither	-11.9439
▁affirmative	-11.9439
▁affliction	-11.9439
▁analogy	-11.9439
▁aristocracy	-11.9439
▁cannonball	-11.9439
▁captivity	-11.9439
▁circling	-11.9439
▁consign	-11.9439
▁convulsion	-11.9439
▁crevice	-11.9439
▁deception	-11.9439
▁elevation	-11.9439
▁engrossed	-11.9439
▁exaggeration	-11.9439
▁exclude	-11.9439
▁fumble	-11.9439
▁grenadier	-11.9439
▁hospitable	-11.9439
▁illustrate	-11.9439
▁imperturbable	-11.9439
▁injunction	-11.9439
▁insensible	-11.9439
▁luxurious	-11.9439
▁merciful	-11.9439
▁paragraph	-11.9439
▁physiognomy	-11.9439
▁sturdy	-11.9439
▁tunnel	-11.9439
▁unconquer	-11.9439
▁unintelligible	-11.9439
▁vampire	-11.9439
▁Teucer	-11.9439
▁confront	-11.9439
▁crouched	-11.9439
▁deference	-11.9439
▁epithet	-11.9439
▁morsel	-11.9439
▁Robert	-11.9439
▁cruise	-11.9439
▁lecture	-11.9439
▁envoy	-11.9439
▁necklace	-11.9439
▁Blow	-11.9439
▁decease	-11.9439
▁lazy	-11.9439
▁Castle	-11.9439
▁girdle	-11.9439
▁posterity	-11.9439
▁advertisement	-11.9439
guinea	-11.9439
▁deduce	-11.9439
▁unerring	-11.9439
▁spouse	-11.9439
▁enigma	-11.9439
▁essay	-11.9439
▁heightened	-11.9439
▁reddish	-11.9439
▁weakened	-11.9439
▁stripped	-11.9439
TTLE	-11.9439
▁nightmare	-11.9439
▁intercourse	-11.9439
▁promote	-11.9439
ocks	-11.944
▁Outside	-11.944
▁soaked	-11.944
▁quilt	-11.944
▁barley	-11.9441
▁Shake	-11.9441
▁Plan	-11.9441
▁revert	-11.9441
▁buttoned	-11.9442
▁diplomatist	-11.9442
▁berth	-11.9442
▁beef	-11.9443
▁disturbance	-11.9444
▁brotherinlaw	-11.9444
▁thud	-11.9448
▁owl	-11.945
Grote	-11.9452
▁cheat	-11.9457
▁conspire	-11.9571
▁Sign	-11.9604
▁dru	-11.975
Louis	-11.9827
Where	-11.9827
▁polish	-11.9846
▁convert	-11.9846
▁Spi	-11.9878
lease	-11.9889
▁Wood	-11.9891
▁vigor	-11.9891
▁peas	-11.9892
▁Green	-11.9893
▁incredulous	-11.9893
▁oblique	-11.9893
▁philanthrop	-11.9893
▁steadfast	-11.9893
FillesduCalvaire	-11.9893
substantial	-11.9893
▁Atlantic	-11.9893
▁Bastille	-11.9893
▁Cardinal	-11.9893
▁Caterpillar	-11.9893
▁Fontaine	-11.9893
▁Gabriel	-11.9893
▁Nonsense	-11.9893
▁Pisistratus	-11.9893
▁Rapunzel	-11.9893
▁Rousseau	-11.9893
▁SCENE	-11.9893
▁Scamander	-11.9893
▁Sprung	-11.9893
▁Suvrov	-11.9893
▁Terrible	-11.9893
▁Weybridge	-11.9893
▁antagonist	-11.9893
▁appellation	-11.9893
▁artifice	-11.9893
▁bloodstained	-11.9893
▁brigadier	-11.9893
▁chemise	-11.9893
▁consecrat	-11.9893
▁coronet	-11.9893
▁damask	-11.9893
▁defensive	-11.9893
▁disadvantage	-11.9893
▁disengag	-11.9893
▁disregard	-11.9893
▁encumber	-11.9893
▁expenditure	-11.9893
▁extricate	-11.9893
▁ignoble	-11.9893
▁maternal	-11.9893
▁monotonous	-11.9893
▁neutral	-11.9893
▁nuptial	-11.9893
▁occupant	-11.9893
▁opportunities	-11.9893
▁opposing	-11.9893
▁patriotic	-11.9893
▁permanent	-11.9893
▁phenomena	-11.9893
▁preoccupation	-11.9893
▁requisite	-11.9893
▁resent	-11.9893
▁superhuman	-11.9893
▁tremulous	-11.9893
▁trodden	-11.9893
▁twinkling	-11.9893
▁unlimited	-11.9893
▁unprecedented	-11.9893
▁veritable	-11.9893
▁Assizes	-11.9893
▁Beausset	-11.9893
▁Lakeman	-11.9893
▁Safie	-11.9893
▁Yesterday	-11.9893
▁dissipate	-11.9893
▁lavish	-11.9893
▁mingling	-11.9893
▁network	-11.9893
▁pillage	-11.9893
▁straggl	-11.9893
▁Thames	-11.9893
▁burial	-11.9893
▁socalled	-11.9893
▁bodice	-11.9893
▁cotton	-11.9893
▁hapless	-11.9893
▁piano	-11.9893
▁scourge	-11.9893
▁whereupon	-11.9893
▁Compare	-11.9893
▁Hotel	-11.9893
▁inflame	-11.9893
▁naval	-11.9893
▁plaintive	-11.9893
▁defile	-11.9893
▁wilful	-11.9893
▁dowry	-11.9894
▁sneer	-11.9894
▁flirt	-11.9894
▁inviting	-11.9894
▁governess	-11.9894
▁defy	-11.9894
▁discernible	-11.9894
▁ginger	-11.9894
▁energetically	-11.9895
▁hereditar	-11.9895
▁proposition	-11.9895
ETTE	-11.9896
▁despot	-11.9896
▁intonation	-11.9897
hunter	-11.9945
stock	-12.0039
▁observ	-12.0164
▁germ	-12.0224
mination	-12.0251
▁301	-12.0254
course	-12.0301
possess	-12.0303
respect	-12.0303
pipe	-12.0305
▁construct	-12.0313
▁disperse	-12.0335
▁arouse	-12.0337
▁Corsica	-12.0357
▁legislat	-12.0357
▁disagree	-12.0367
communica	-12.0369
▁circum	-12.0369
▁abundant	-12.0369
▁acquiesce	-12.0369
▁adequate	-12.0369
▁exclusive	-12.0369
sumptuous	-12.0369
▁Babylon	-12.0369
▁Brevet	-12.0369
▁Buchanan	-12.0369
▁Derbyshire	-12.0369
▁Divine	-12.0369
▁Eurymachus	-12.0369
▁Field	-12.0369
▁Hellenic	-12.0369
▁Hunsford	-12.0369
▁Lieutenant	-12.0369
▁Literally	-12.0369
▁Melanthius	-12.0369
▁Mercutio	-12.0369
▁Penelon	-12.0369
▁Pylian	-12.0369
▁RedCap	-12.0369
▁SAILOR	-12.0369
▁SaintDenis	-12.0369
▁SaintJacques	-12.0369
▁Simplice	-12.0369
▁Spaniard	-12.0369
▁Truly	-12.0369
▁Undoubtedly	-12.0369
▁Winkies	-12.0369
▁admission	-12.0369
▁charitable	-12.0369
▁contemporary	-12.0369
▁degenerate	-12.0369
▁discourage	-12.0369
▁economy	-12.0369
▁egotism	-12.0369
▁expensive	-12.0369
▁garlic	-12.0369
▁glaring	-12.0369
▁guidance	-12.0369
▁gunwale	-12.0369
▁heavier	-12.0369
▁hymn	-12.0369
▁impassive	-12.0369
▁implacable	-12.0369
▁inexhaustible	-12.0369
▁knives	-12.0369
▁oldfashioned	-12.0369
▁paroxysm	-12.0369
▁piastres	-12.0369
▁portmanteau	-12.0369
▁preliminar	-12.0369
▁register	-12.0369
▁repugnance	-12.0369
▁response	-12.0369
▁sarcastic	-12.0369
▁sausage	-12.0369
▁sceptic	-12.0369
▁securing	-12.0369
▁splendour	-12.0369
▁swollen	-12.0369
▁taproom	-12.0369
▁telescope	-12.0369
▁territory	-12.0369
▁unheardof	-12.0369
▁urchin	-12.0369
▁variation	-12.0369
▁vestibule	-12.0369
▁British	-12.0369
▁Fox	-12.0369
▁Gersim	-12.0369
▁Sailor	-12.0369
▁aspiration	-12.0369
▁diverse	-12.0369
▁mamma	-12.0369
▁prowess	-12.0369
▁rabble	-12.0369
▁smack	-12.0369
▁Hesiod	-12.0369
▁Myrtle	-12.0369
▁insect	-12.0369
ocratic	-12.0369
▁bridle	-12.0369
▁striding	-12.0369
▁athlete	-12.0369
▁cutlass	-12.0369
▁melody	-12.0369
▁Lodge	-12.0369
▁tucked	-12.0369
▁Women	-12.037
▁coffer	-12.037
▁imposing	-12.037
▁deduction	-12.037
▁dandy	-12.037
▁overpowered	-12.037
▁unlocked	-12.037
▁Parsee	-12.037
▁Hurst	-12.037
▁gratify	-12.037
▁slanting	-12.037
▁salad	-12.037
▁urging	-12.037
▁meddle	-12.037
▁Content	-12.037
▁Mentor	-12.037
▁Power	-12.037
▁alms	-12.037
▁Merry	-12.037
▁gaiety	-12.037
▁chopp	-12.037
▁oligarchical	-12.037
▁oblong	-12.037
▁ulla	-12.037
NESS	-12.037
▁compete	-12.0371
▁gems	-12.0371
▁Empress	-12.0371
▁Dawn	-12.0371
▁balm	-12.0371
▁grinning	-12.0371
▁vale	-12.0372
▁nettle	-12.0372
▁weariness	-12.0372
▁Sacr	-12.0378
KING	-12.0381
ocket	-12.0433
racing	-12.0493
▁201	-12.0522
ethinks	-12.0525
▁balanc	-12.0676
▁aspire	-12.0683
TY	-12.0799
general	-12.0803
Valentine	-12.0803
first	-12.0804
clad	-12.0805
▁absorb	-12.0822
nker	-12.0823
▁injure	-12.0835
espite	-12.0869
▁Jacob	-12.0869
▁SERV	-12.0869
Coleridge	-12.0869
▁Admiral	-12.0869
▁Azelma	-12.0869
▁Blacas	-12.0869
▁Blcher	-12.0869
▁Bohemia	-12.0869
▁Eliza	-12.0869
▁Except	-12.0869
▁Fauvent	-12.0869
▁Leghorn	-12.0869
▁Olmtz	-12.0869
▁Pierced	-12.0869
▁Pythagorean	-12.0869
▁Semnov	-12.0869
▁Spyglass	-12.0869
▁Timaeus	-12.0869
▁Unfortunately	-12.0869
▁Vereshchgin	-12.0869
▁Xanthus	-12.0869
▁applies	-12.0869
▁calamity	-12.0869
▁cesspool	-12.0869
▁chastise	-12.0869
▁coincidence	-12.0869
▁commissary	-12.0869
▁coracle	-12.0869
▁deplore	-12.0869
▁destination	-12.0869
▁disfigure	-12.0869
▁drinkoffering	-12.0869
▁ecstatic	-12.0869
▁enslave	-12.0869
▁entrails	-12.0869
▁falchion	-12.0869
▁forcibly	-12.0869
▁garrison	-12.0869
▁gratified	-12.0869
▁immensity	-12.0869
▁imprudent	-12.0869
▁inaccessible	-12.0869
▁infernal	-12.0869
▁kerchief	-12.0869
▁kitten	-12.0869
▁mademoiselle	-12.0869
▁mathematics	-12.0869
▁mechanism	-12.0869
▁meditating	-12.0869
▁nickname	-12.0869
▁obstruct	-12.0869
▁outburst	-12.0869
▁paddle	-12.0869
▁paralyze	-12.0869
▁pellmell	-12.0869
▁possibilities	-12.0869
▁prairie	-12.0869
▁prodigal	-12.0869
▁pulpit	-12.0869
▁quarterdeck	-12.0869
▁recount	-12.0869
▁refined	-12.0869
▁samovar	-12.0869
▁sneeze	-12.0869
▁souvenir	-12.0869
▁succour	-12.0869
▁telephone	-12.0869
▁testimony	-12.0869
▁tremor	-12.0869
▁tumbling	-12.0869
▁twelfth	-12.0869
▁undecided	-12.0869
▁unforeseen	-12.0869
▁variance	-12.0869
▁veteran	-12.0869
▁volcano	-12.0869
▁yawned	-12.0869
▁dizzy	-12.0869
▁eventually	-12.0869
▁harmonies	-12.0869
▁hawser	-12.0869
▁installed	-12.0869
▁muzzle	-12.0869
▁oyster	-12.0869
▁penalty	-12.0869
▁rallied	-12.0869
▁rebuke	-12.0869
▁sallow	-12.0869
▁irrevocab	-12.0869
▁literary	-12.0869
▁stupor	-12.0869
▁Myriel	-12.0869
▁Wife	-12.0869
▁firmament	-12.0869
▁termination	-12.0869
▁copies	-12.0869
▁turf	-12.0869
▁buoy	-12.0869
▁abstain	-12.087
▁steak	-12.087
▁chaise	-12.087
▁dejected	-12.087
▁Mvra	-12.087
▁Slow	-12.087
▁gallows	-12.087
▁bubble	-12.087
▁massacre	-12.087
▁starving	-12.087
▁version	-12.087
▁diction	-12.087
▁deceit	-12.087
▁overturned	-12.087
▁implied	-12.087
▁Always	-12.087
▁Tartar	-12.087
▁depressed	-12.087
▁PART	-12.087
▁magnet	-12.087
clapping	-12.087
▁Persian	-12.087
▁violate	-12.087
▁dived	-12.087
▁bowels	-12.087
▁deafening	-12.087
▁Talk	-12.087
▁respite	-12.087
▁Hermes	-12.087
▁notebook	-12.087
▁shelf	-12.087
OTHER	-12.0871
▁sobbed	-12.0871
▁latch	-12.0871
▁recede	-12.0872
▁formula	-12.089
▁Bank	-12.0891
▁Pardi	-12.0905
▁migr	-12.0946
▁vein	-12.1199
tyfive	-12.129
school	-12.133
Marius	-12.133
With	-12.133
storm	-12.133
▁Assuredly	-12.1396
▁Catholic	-12.1396
▁Dmtri	-12.1396
▁Lafayette	-12.1396
▁Leatherhead	-12.1396
▁Milordovich	-12.1396
▁Oxford	-12.1396
▁Polonceau	-12.1396
▁Ravski	-12.1396
▁Redoubt	-12.1396
▁Rhetor	-12.1396
▁Switzerland	-12.1396
▁Unhappy	-12.1396
▁Wolzogen	-12.1396
▁anecdote	-12.1396
▁authentic	-12.1396
▁baffled	-12.1396
▁balcony	-12.1396
▁boudoir	-12.1396
▁brushwood	-12.1396
▁cabbage	-12.1396
▁champion	-12.1396
▁citadel	-12.1396
▁dainty	-12.1396
▁embracing	-12.1396
▁eyeballs	-12.1396
▁generosity	-12.1396
▁grotesque	-12.1396
▁humiliation	-12.1396
▁humility	-12.1396
▁improbable	-12.1396
▁infallibly	-12.1396
▁infinity	-12.1396
▁irresistibly	-12.1396
▁junction	-12.1396
▁liberated	-12.1396
▁magnanimous	-12.1396
▁platform	-12.1396
▁predestined	-12.1396
▁provincial	-12.1396
▁proximity	-12.1396
▁rebellion	-12.1396
▁respiration	-12.1396
▁scuttle	-12.1396
▁sequence	-12.1396
▁shrewd	-12.1396
▁traversing	-12.1396
▁tribute	-12.1396
▁unavailing	-12.1396
▁unearthly	-12.1396
▁utility	-12.1396
▁vacancy	-12.1396
▁verbal	-12.1396
▁vibration	-12.1396
▁voluntary	-12.1396
▁Corinthe	-12.1396
▁Eternal	-12.1396
▁Japanese	-12.1396
▁Myrmidon	-12.1396
▁Thracian	-12.1396
▁adorable	-12.1396
▁barbarians	-12.1396
▁convalesc	-12.1396
▁decanter	-12.1396
▁elastic	-12.1396
▁gentry	-12.1396
▁nasty	-12.1396
extensive	-12.1396
▁Bravo	-12.1396
▁Sicily	-12.1396
▁glut	-12.1396
▁jostl	-12.1396
▁pike	-12.1396
▁effectually	-12.1396
▁endurance	-12.1396
▁enrich	-12.1396
▁shipowner	-12.1396
▁tentacle	-12.1396
▁Break	-12.1396
▁nightingale	-12.1396
▁sermon	-12.1396
▁upheld	-12.1396
▁mythology	-12.1396
▁Eastern	-12.1396
▁vaunt	-12.1396
▁Strong	-12.1396
▁Balag	-12.1396
▁blink	-12.1396
ographical	-12.1396
▁Better	-12.1396
▁capstan	-12.1396
▁copse	-12.1396
▁meagre	-12.1396
▁manuvre	-12.1396
▁dispel	-12.1396
▁Giles	-12.1396
▁Czar	-12.1396
▁aptitude	-12.1396
▁average	-12.1396
▁oats	-12.1396
machus	-12.1396
▁fuss	-12.1397
▁refut	-12.1397
▁oven	-12.1397
CAR	-12.1397
vading	-12.1398
▁flute	-12.1398
▁budge	-12.1398
SOL	-12.14
▁exhale	-12.1401
eluded	-12.1401
▁Earl	-12.1526
▁THA	-12.1537
▁Dead	-12.1592
tresses	-12.1732
spired	-12.1744
▁creat	-12.1751
▁shark	-12.1753
connected	-12.1885
complete	-12.1885
From	-12.1885
▁respond	-12.1904
stream	-12.1908
▁animate	-12.1917
▁philosophi	-12.1951
GAVROCHE	-12.1951
separable	-12.1951
▁Bougon	-12.1951
▁Chicago	-12.1951
▁Council	-12.1951
▁DroitMur	-12.1951
▁Gospel	-12.1951
▁Government	-12.1951
▁HOUSE	-12.1951
▁Hendrkhovna	-12.1951
▁Ivnovna	-12.1951
▁Kuzmnichna	-12.1951
▁Mantua	-12.1951
▁Robespierre	-12.1951
▁Tydeus	-12.1951
▁album	-12.1951
▁alternative	-12.1951
▁amazing	-12.1951
▁arcade	-12.1951
▁austere	-12.1951
▁auxiliar	-12.1951
▁bewilderment	-12.1951
▁bridal	-12.1951
▁chambre	-12.1951
▁contemplating	-12.1951
▁contemporaries	-12.1951
▁conversion	-12.1951
▁coquettish	-12.1951
▁cradle	-12.1951
▁dauntless	-12.1951
▁delirious	-12.1951
▁deputy	-12.1951
▁diligently	-12.1951
▁emerald	-12.1951
▁epaulets	-12.1951
▁excursion	-12.1951
▁flapping	-12.1951
▁forefinger	-12.1951
▁galleyslave	-12.1951
▁glistened	-12.1951
▁goodhumour	-12.1951
▁guiding	-12.1951
▁guillotine	-12.1951
▁gypsies	-12.1951
▁imprudence	-12.1951
▁indecision	-12.1951
▁intensified	-12.1951
▁intermittent	-12.1951
▁invaluable	-12.1951
▁kinsman	-12.1951
▁lEmpereur	-12.1951
▁landscape	-12.1951
▁nimble	-12.1951
▁oscillat	-12.1951
▁patriotism	-12.1951
▁poignant	-12.1951
▁preservation	-12.1951
▁prophecy	-12.1951
▁quun	-12.1951
▁rosyfingered	-12.1951
▁salutation	-12.1951
▁scrupulous	-12.1951
▁selfsacrifice	-12.1951
▁shrubbery	-12.1951
▁signifies	-12.1951
▁solicitude	-12.1951
▁stepfather	-12.1951
▁submissive	-12.1951
▁succor	-12.1951
▁threadbare	-12.1951
▁varieties	-12.1951
▁wicket	-12.1951
▁Bristol	-12.1951
▁Fifth	-12.1951
▁Kalga	-12.1951
▁Venice	-12.1951
▁Vernon	-12.1951
▁agonizing	-12.1951
▁arguing	-12.1951
▁contrivance	-12.1951
▁courier	-12.1951
▁draft	-12.1951
▁maneuver	-12.1951
▁pepper	-12.1951
▁reminiscence	-12.1951
▁swoon	-12.1951
▁transaction	-12.1951
▁adroit	-12.1951
▁choir	-12.1951
▁desolation	-12.1951
▁drummer	-12.1951
▁homage	-12.1951
▁humbly	-12.1951
▁momentarily	-12.1951
▁sniff	-12.1951
▁Selim	-12.1951
▁Smoke	-12.1951
▁barrow	-12.1951
▁carnage	-12.1951
▁conventional	-12.1951
▁eminent	-12.1951
▁enforce	-12.1951
▁impelled	-12.1951
▁devout	-12.1951
▁pagan	-12.1951
▁Woman	-12.1951
▁Spring	-12.1951
▁conjure	-12.1951
▁postpone	-12.1951
▁Proceed	-12.1951
▁sonorous	-12.1951
▁cream	-12.1951
▁resort	-12.1951
▁Wide	-12.1951
▁noiselessly	-12.1951
▁presentiment	-12.1951
▁phial	-12.1952
▁zone	-12.1952
▁partisan	-12.1952
▁Earth	-12.1952
▁compil	-12.1952
▁chalk	-12.1952
▁Wind	-12.1952
▁astray	-12.1952
▁isolation	-12.1952
▁scowl	-12.1952
▁sallie	-12.1955
▁dilate	-12.1957
etropol	-12.196
▁identifi	-12.1961
evich	-12.1976
▁WAR	-12.216
▁deceiv	-12.223
savor	-12.2237
▁dominat	-12.2271
▁dialect	-12.2291
▁Numbe	-12.2416
▁execut	-12.2421
▁Bones	-12.2452
▁renounc	-12.2457
window	-12.2474
▁oligarch	-12.2525
▁contra	-12.2528
▁festiv	-12.2538
▁Bernard	-12.254
▁physiolog	-12.254
▁strenuous	-12.254
ULYSSES	-12.254
▁ARGUMENT	-12.254
▁Adventure	-12.254
▁Avenue	-12.254
▁Beaucaire	-12.254
▁Chertsey	-12.254
▁DAvrigny	-12.254
▁Deiphobus	-12.254
▁Falada	-12.254
▁Florence	-12.254
▁Gervais	-12.254
▁Invalides	-12.254
▁McKee	-12.254
▁Mozhysk	-12.254
▁Phnix	-12.254
▁Piccadilly	-12.254
▁Possibly	-12.254
▁Ramballe	-12.254
▁Roylott	-12.254
▁Sacrament	-12.254
▁SaintMerry	-12.254
▁Stretchd	-12.254
▁Tartino	-12.254
▁Telamon	-12.254
▁Twelve	-12.254
▁Voyage	-12.254
▁adjacent	-12.254
▁adverse	-12.254
▁affront	-12.254
▁afloat	-12.254
▁apologize	-12.254
▁approbation	-12.254
▁archangel	-12.254
▁authoritative	-12.254
▁barracks	-12.254
▁blackguard	-12.254
▁brawny	-12.254
▁champagne	-12.254
▁channel	-12.254
▁collision	-12.254
▁communion	-12.254
▁cripple	-12.254
▁dimensions	-12.254
▁diversion	-12.254
▁elaborate	-12.254
▁embattled	-12.254
▁espied	-12.254
▁exhort	-12.254
▁explode	-12.254
▁facility	-12.254
▁fascinate	-12.254
▁fencing	-12.254
▁fertile	-12.254
▁fiacre	-12.254
▁flavor	-12.254
▁frenzy	-12.254
▁fundamental	-12.254
▁funereal	-12.254
▁glistening	-12.254
▁immeasurabl	-12.254
▁impertinent	-12.254
▁imploring	-12.254
▁incoherent	-12.254
▁ingenuous	-12.254
▁irreproachable	-12.254
▁misshapen	-12.254
▁multiplied	-12.254
▁obstinacy	-12.254
▁omnibus	-12.254
▁palisade	-12.254
▁perpetrat	-12.254
▁plunging	-12.254
▁portfolio	-12.254
▁prohibited	-12.254
▁reparation	-12.254
▁saviour	-12.254
▁scullery	-12.254
▁seashore	-12.254
▁selfconfident	-12.254
▁selfcontrol	-12.254
▁senator	-12.254
▁skirmish	-12.254
▁superficial	-12.254
▁tribunal	-12.254
▁unfathomable	-12.254
▁unmoved	-12.254
▁unnoticed	-12.254
▁unreasonable	-12.254
▁unsuccessful	-12.254
▁verdure	-12.254
▁vivacity	-12.254
▁Courage	-12.254
▁Henderson	-12.254
▁Reflect	-12.254
▁audacious	-12.254
▁emphasiz	-12.254
▁exchanging	-12.254
▁giddy	-12.254
▁impotent	-12.254
▁overspread	-12.254
▁pitiable	-12.254
▁placid	-12.254
▁politician	-12.254
▁sensual	-12.254
▁tattoo	-12.254
▁ticket	-12.254
▁vertebr	-12.254
▁vodka	-12.254
▁Israel	-12.254
▁Varna	-12.254
▁broadsheet	-12.254
▁flask	-12.254
▁nursing	-12.254
▁palpable	-12.254
▁compartment	-12.254
▁nibbl	-12.254
▁shako	-12.254
▁Thereupon	-12.254
▁Antenor	-12.254
▁busied	-12.254
▁cleft	-12.254
▁parcel	-12.254
▁thump	-12.254
▁Orestes	-12.254
▁Anything	-12.254
▁fuel	-12.254
▁Amlie	-12.254
▁Politic	-12.254
▁Chief	-12.254
▁waft	-12.254
▁odour	-12.254
▁durst	-12.254
▁Proud	-12.254
▁embers	-12.254
▁Work	-12.254
▁inherent	-12.254
▁Way	-12.254
bulous	-12.254
▁Loud	-12.254
▁tropic	-12.2541
▁bawl	-12.2541
emitted	-12.2542
▁clove	-12.2546
▁charr	-12.2547
▁precipitat	-12.259
▁denote	-12.2594
▁remarkabl	-12.266
▁fringe	-12.2673
cock	-12.2927
▁reserv	-12.2989
▁choos	-12.3022
found	-12.3096
Valjean	-12.3099
Monte	-12.3099
should	-12.3099
bridge	-12.31
wife	-12.3102
▁trait	-12.3147
▁cuirass	-12.3165
COSETTE	-12.3165
enunciation	-12.3165
▁Autolycus	-12.3165
▁Bistritz	-12.3165
▁Blachevelle	-12.3165
▁Brussels	-12.3165
▁College	-12.3165
▁Company	-12.3165
▁Constantinople	-12.3165
▁Drissa	-12.3165
▁Eurynome	-12.3165
▁Formerly	-12.3165
▁GOOD	-12.3165
▁Genappe	-12.3165
▁Hellenes	-12.3165
▁Machaon	-12.3165
▁Mestienne	-12.3165
▁Nausicaa	-12.3165
▁Pelagya	-12.3165
▁Redruth	-12.3165
▁Ryazn	-12.3165
▁SaintHonor	-12.3165
▁TYBALT	-12.3165
▁Tepelini	-12.3165
▁Vaugirard	-12.3165
▁Venetian	-12.3165
▁Windibank	-12.3165
▁ambulance	-12.3165
▁articulate	-12.3165
▁assumption	-12.3165
▁avaricious	-12.3165
▁calculating	-12.3165
▁chemical	-12.3165
▁circumference	-12.3165
▁clavichord	-12.3165
▁climate	-12.3165
▁commerce	-12.3165
▁commissari	-12.3165
▁conspiracy	-12.3165
▁decrease	-12.3165
▁defiance	-12.3165
▁disputing	-12.3165
▁encouraging	-12.3165
▁engaging	-12.3165
▁engraved	-12.3165
▁enraptured	-12.3165
▁estimation	-12.3165
▁ferocity	-12.3165
▁fervent	-12.3165
▁follies	-12.3165
▁geometrical	-12.3165
▁glaci	-12.3165
▁granddaughter	-12.3165
▁grumbling	-12.3165
▁hackneycoach	-12.3165
▁huddled	-12.3165
▁imperceptibly	-12.3165
▁imprisonment	-12.3165
▁incalculable	-12.3165
▁inconsistency	-12.3165
▁liquor	-12.3165
▁maintenance	-12.3165
▁masculine	-12.3165
▁monomania	-12.3165
▁municipal	-12.3165
▁mushroom	-12.3165
▁narration	-12.3165
▁nurture	-12.3165
▁paralytic	-12.3165
▁pedestrian	-12.3165
▁perseverance	-12.3165
▁perspective	-12.3165
▁perspiring	-12.3165
▁preserving	-12.3165
▁pretension	-12.3165
▁promotion	-12.3165
▁sagacious	-12.3165
▁scissors	-12.3165
▁scrutiny	-12.3165
▁shrunk	-12.3165
▁strategy	-12.3165
▁stumbling	-12.3165
▁submission	-12.3165
▁threequarters	-12.3165
▁trophies	-12.3165
▁unconcern	-12.3165
▁unhealthy	-12.3165
▁vegetation	-12.3165
▁voluntarily	-12.3165
SAINT	-12.3165
▁Brighton	-12.3165
▁Cabuc	-12.3165
▁Marengo	-12.3165
▁WHO	-12.3165
▁dislocat	-12.3165
▁inanimate	-12.3165
▁privation	-12.3165
▁profane	-12.3165
▁relinquish	-12.3165
▁restricted	-12.3165
▁resuming	-12.3165
▁scrambl	-12.3165
▁stimulat	-12.3165
▁thirtyfive	-12.3165
▁throbbing	-12.3165
▁trigger	-12.3165
▁twig	-12.3165
▁Theodore	-12.3165
▁gorgeous	-12.3165
▁nonetheless	-12.3165
▁probity	-12.3165
▁vertical	-12.3165
▁devoid	-12.3165
▁editor	-12.3165
▁graze	-12.3165
▁implant	-12.3165
▁Bernardines	-12.3165
▁frail	-12.3165
▁pervade	-12.3165
▁trough	-12.3165
▁crossroads	-12.3165
▁salary	-12.3165
▁Fool	-12.3165
▁Jacqu	-12.3165
▁garland	-12.3165
▁muscula	-12.3165
▁spake	-12.3165
▁dedicate	-12.3165
▁shoal	-12.3165
▁enmity	-12.3165
▁hugg	-12.3165
▁investigate	-12.3165
▁manifold	-12.3165
▁redeem	-12.3165
▁untrue	-12.3165
▁ACT	-12.3165
▁groping	-12.3165
▁muslin	-12.3165
▁thirtysix	-12.3165
▁underwent	-12.3165
▁sloping	-12.3165
▁abject	-12.3165
▁sledge	-12.3165
▁wedded	-12.3165
▁flches	-12.3165
▁Sweet	-12.3165
▁shrine	-12.3165
▁subsist	-12.3165
▁ruffl	-12.3165
▁Krem	-12.3168
▁Flora	-12.3172
▁democrat	-12.3231
▁exercis	-12.3286
▁mutter	-12.374
educated	-12.3765
built	-12.3765
Emperor	-12.3765
feeling	-12.3765
WHI	-12.3765
Danglars	-12.3765
After	-12.3765
girl	-12.3766
▁smash	-12.3784
uspicious	-12.383
misunderstanding	-12.3831
uesnel	-12.3831
vulnerable	-12.3831
▁Academy	-12.3831
▁Amsterdam	-12.3831
▁BEGIN	-12.3831
▁Carfax	-12.3831
▁Caroline	-12.3831
▁Confused	-12.3831
▁Dimmler	-12.3831
▁Dummling	-12.3831
▁GREEK	-12.3831
▁Guelemer	-12.3831
▁Ishmael	-12.3831
▁Louvre	-12.3831
▁Michaud	-12.3831
▁Ogilvy	-12.3831
▁Radney	-12.3831
▁Rospoli	-12.3831
▁SAMPSON	-12.3831
▁Sebastian	-12.3831
▁Slovak	-12.3831
▁Snowwhite	-12.3831
▁Surrey	-12.3831
▁Truth	-12.3831
▁Ursule	-12.3831
▁acquisition	-12.3831
▁administration	-12.3831
▁apparatus	-12.3831
▁apprise	-12.3831
▁approving	-12.3831
▁audacity	-12.3831
▁avarice	-12.3831
▁betrothal	-12.3831
▁bubbling	-12.3831
▁buffoon	-12.3831
▁ceremonies	-12.3831
▁circumspect	-12.3831
▁condescension	-12.3831
▁consummate	-12.3831
▁convenience	-12.3831
▁convincing	-12.3831
▁crumpled	-12.3831
▁dArmilly	-12.3831
▁defense	-12.3831
▁definitive	-12.3831
▁destructive	-12.3831
▁diameter	-12.3831
▁dilapidated	-12.3831
▁disastrous	-12.3831
▁dissatisfaction	-12.3831
▁elevating	-12.3831
▁environs	-12.3831
▁expiation	-12.3831
▁fanciful	-12.3831
▁fascination	-12.3831
▁foreboding	-12.3831
▁fumbling	-12.3831
▁fusillade	-12.3831
▁heartrending	-12.3831
▁humiliating	-12.3831
▁hurricane	-12.3831
▁hypothesis	-12.3831
▁imitative	-12.3831
▁immovable	-12.3831
▁indescribably	-12.3831
▁indiscreet	-12.3831
▁instantaneous	-12.3831
▁intuition	-12.3831
▁invariable	-12.3831
▁irrational	-12.3831
▁lemonade	-12.3831
▁magnanimity	-12.3831
▁mantelpiece	-12.3831
▁miniature	-12.3831
▁monastery	-12.3831
▁nectar	-12.3831
▁oblivion	-12.3831
▁omission	-12.3831
▁plentiful	-12.3831
▁potatoes	-12.3831
▁premature	-12.3831
▁premises	-12.3831
▁prettiest	-12.3831
▁promenade	-12.3831
▁reclining	-12.3831
▁recommence	-12.3831
▁reestablish	-12.3831
▁ruthless	-12.3831
▁sarcasm	-12.3831
▁seafaring	-12.3831
▁separating	-12.3831
▁smeared	-12.3831
▁snoring	-12.3831
▁spermaceti	-12.3831
▁spontaneous	-12.3831
▁strategic	-12.3831
▁tiresome	-12.3831
▁transmitted	-12.3831
▁unmistakabl	-12.3831
▁vanguard	-12.3831
▁vindictive	-12.3831
▁vouchsafe	-12.3831
▁whiff	-12.3831
RESS	-12.3831
rthodox	-12.3831
▁Kiev	-12.3831
▁Lacedaemon	-12.3831
▁Sultan	-12.3831
▁betoken	-12.3831
▁burglar	-12.3831
▁dejection	-12.3831
▁desperation	-12.3831
▁dishonest	-12.3831
▁hypotheses	-12.3831
▁imminent	-12.3831
▁jovial	-12.3831
▁mislead	-12.3831
▁pauper	-12.3831
▁reconstruct	-12.3831
▁Ansya	-12.3831
▁Joyce	-12.3831
▁Prefect	-12.3831
▁famine	-12.3831
▁filial	-12.3831
▁indolent	-12.3831
▁stirrup	-12.3831
▁subsided	-12.3831
▁contort	-12.3831
▁copious	-12.3831
▁squat	-12.3831
▁thwart	-12.3831
▁Exeter	-12.3831
▁injuries	-12.3831
▁hatchet	-12.3831
▁append	-12.3831
▁implies	-12.3831
▁Hebrew	-12.3831
▁guise	-12.3831
▁Tuscan	-12.3831
▁Oleus	-12.3831
▁lurch	-12.3831
▁chuan	-12.3831
Franois	-12.3831
▁Schoss	-12.3831
▁psalm	-12.3831
▁scope	-12.3831
▁demean	-12.3831
▁stiffened	-12.3831
▁adoration	-12.3831
▁twinkle	-12.3831
▁counsellor	-12.3831
▁imprint	-12.3831
SOME	-12.3831
▁radiat	-12.3831
▁besieg	-12.3831
▁daub	-12.3831
▁interchange	-12.3831
▁coral	-12.3832
▁cadet	-12.3832
▁Rita	-12.3832
▁Write	-12.3834
▁Arriv	-12.3835
HOU	-12.3836
▁trebl	-12.3849
▁impute	-12.3855
COME	-12.3859
curring	-12.3918
TAR	-12.3987
▁requir	-12.4336
tangled	-12.4347
▁determin	-12.4428
spirited	-12.4443
compass	-12.4479
knowledge	-12.4479
carriage	-12.4479
Napoleon	-12.4479
because	-12.448
▁disappoint	-12.4494
▁stammer	-12.4498
▁accustom	-12.4498
▁squad	-12.4545
▁SEVEN	-12.4545
▁Laffitte	-12.4545
▁boisterous	-12.4545
▁fabric	-12.4545
▁fidelity	-12.4545
▁grievous	-12.4545
▁impulsive	-12.4545
▁inquisitive	-12.4545
▁irresolute	-12.4545
▁microscop	-12.4545
▁unaffected	-12.4545
▁unceasing	-12.4545
Perpetual	-12.4546
applicable	-12.4546
▁Approach	-12.4546
▁Asclepius	-12.4546
▁Benvolio	-12.4546
▁Bienvenu	-12.4546
▁Chobham	-12.4546
▁Chryses	-12.4546
▁Dahlia	-12.4546
▁Demodocus	-12.4546
▁Dokhtrov	-12.4546
▁Excellent	-12.4546
▁Fabantou	-12.4546
▁Fdorovna	-12.4546
▁Ferapntov	-12.4546
▁Gazette	-12.4546
▁HISTOR	-12.4546
▁HaieSainte	-12.4546
▁Happy	-12.4546
▁Hatherley	-12.4546
▁Holmwood	-12.4546
▁Instantly	-12.4546
▁Koloch	-12.4546
▁Krsnoe	-12.4546
▁Meilhan	-12.4546
▁Military	-12.4546
▁Progress	-12.4546
▁Richmond	-12.4546
▁Science	-12.4546
▁Shakespeare	-12.4546
▁Teiresias	-12.4546
▁Terror	-12.4546
▁Treasure	-12.4546
▁Vicomte	-12.4546
▁Vincent	-12.4546
▁Vyzma	-12.4546
▁Winchester	-12.4546
▁abreast	-12.4546
▁alphabet	-12.4546
▁apothecary	-12.4546
▁apprentice	-12.4546
▁arbitrar	-12.4546
▁bracket	-12.4546
▁bustling	-12.4546
▁chteau	-12.4546
▁cleanshaven	-12.4546
▁comprehensible	-12.4546
▁concluding	-12.4546
▁continent	-12.4546
▁counterfeit	-12.4546
▁declining	-12.4546
▁emaciated	-12.4546
▁embarrassing	-12.4546
▁embellish	-12.4546
▁episcopa	-12.4546
▁exconvict	-12.4546
▁explicit	-12.4546
▁extravagant	-12.4546
▁extremities	-12.4546
▁frustrate	-12.4546
▁grammar	-12.4546
▁grieving	-12.4546
▁handwriting	-12.4546
▁hindrance	-12.4546
▁humiliate	-12.4546
▁identify	-12.4546
▁indefatigable	-12.4546
▁indiscretion	-12.4546
▁indulging	-12.4546
▁inexperience	-12.4546
▁inflexible	-12.4546
▁ingratitude	-12.4546
▁instituted	-12.4546
▁intervention	-12.4546
▁invincible	-12.4546
▁magazine	-12.4546
▁matrimon	-12.4546
▁ordinarily	-12.4546
▁outspread	-12.4546
▁parapet	-12.4546
▁poplar	-12.4546
▁practising	-12.4546
▁presumption	-12.4546
▁progeny	-12.4546
▁refinement	-12.4546
▁restaurant	-12.4546
▁revenue	-12.4546
▁sensibility	-12.4546
▁smoky	-12.4546
▁strangle	-12.4546
▁stupendous	-12.4546
▁timocracy	-12.4546
▁treason	-12.4546
▁trophy	-12.4546
▁troubling	-12.4546
▁trowsers	-12.4546
▁unfinished	-12.4546
▁unhappily	-12.4546
▁unmarried	-12.4546
▁unobserved	-12.4546
▁unreasoning	-12.4546
▁ventilator	-12.4546
▁veranda	-12.4546
▁verdant	-12.4546
▁vineyard	-12.4546
▁visibly	-12.4546
▁wardrobe	-12.4546
▁wayfarer	-12.4546
▁wharf	-12.4546
▁whitewashed	-12.4546
▁Hollow	-12.4546
▁Hussey	-12.4546
▁accentuated	-12.4546
▁consoling	-12.4546
▁culminat	-12.4546
▁greedy	-12.4546
▁mutiny	-12.4546
▁perverse	-12.4546
▁stifling	-12.4546
▁trimmed	-12.4546
▁Coffin	-12.4546
▁Ernest	-12.4546
▁Hudson	-12.4546
▁Niemen	-12.4546
▁enroll	-12.4546
▁Rhine	-12.4546
▁dominion	-12.4546
▁lounging	-12.4546
▁pretence	-12.4546
▁ravage	-12.4546
▁Hullo	-12.4546
▁flinch	-12.4546
▁halfhour	-12.4546
▁upbraid	-12.4546
▁David	-12.4546
▁ceasing	-12.4546
▁fluid	-12.4546
tangible	-12.4546
▁jingling	-12.4546
▁Below	-12.4546
▁landowner	-12.4546
▁hilt	-12.4546
▁temperament	-12.4546
▁laurel	-12.4546
▁implement	-12.4546
▁libation	-12.4546
▁cynic	-12.4546
▁Cicero	-12.4546
▁chronic	-12.4546
▁overhang	-12.4546
▁aurora	-12.4546
▁bomb	-12.4547
▁deluge	-12.4547
▁Volu	-12.4548
mportant	-12.4548
▁choler	-12.4548
▁emanate	-12.4549
factories	-12.4552
▁glue	-12.4556
▁squeeze	-12.456
▁Phyl	-12.4563
▁Permi	-12.4569
▁Thirty	-12.4658
manuver	-12.4726
wakened	-12.4902
ncient	-12.5154
▁depriv	-12.5187
General	-12.5249
Rostv	-12.5249
Nicholas	-12.5249
perhaps	-12.5249
Andrew	-12.5249
whether	-12.5249
▁acquaint	-12.5266
▁elevate	-12.528
▁ACHILLES	-12.5315
▁Aeschylus	-12.5315
▁Ashputtel	-12.5315
▁Automedon	-12.5315
▁BATTLE	-12.5315
▁Bedford	-12.5315
▁Borgia	-12.5315
▁Building	-12.5315
▁Charlemagne	-12.5315
▁Claquesous	-12.5315
▁Dauphin	-12.5315
▁Eurypylus	-12.5315
▁Explain	-12.5315
▁FastFish	-12.5315
▁Faverolles	-12.5315
▁Glinda	-12.5315
▁Hundred	-12.5315
▁Peisistratus	-12.5315
▁Phaedrus	-12.5315
▁Phemius	-12.5315
▁Porpoise	-12.5315
▁Ramadan	-12.5315
▁Scotch	-12.5315
▁Skilld	-12.5315
▁Smyrna	-12.5315
▁Supposing	-12.5315
▁Szgany	-12.5315
▁Vornezh	-12.5315
▁abhorrence	-12.5315
▁accompaniment	-12.5315
▁accumulation	-12.5315
▁acknowledging	-12.5315
▁adventurous	-12.5315
▁aidesdecamp	-12.5315
▁alcove	-12.5315
▁ambuscade	-12.5315
▁antipathy	-12.5315
▁axiom	-12.5315
▁befriend	-12.5315
▁bespoke	-12.5315
▁binnacle	-12.5315
▁brilliancy	-12.5315
▁capricious	-12.5315
▁cassock	-12.5315
▁charcoal	-12.5315
▁comprehensive	-12.5315
▁conceivable	-12.5315
▁conjunction	-12.5315
▁connexion	-12.5315
▁conservatory	-12.5315
▁cramped	-12.5315
▁crescent	-12.5315
▁dangling	-12.5315
▁decorum	-12.5315
▁deserving	-12.5315
▁despoil	-12.5315
▁dilemma	-12.5315
▁disapprove	-12.5315
▁ecstasies	-12.5315
▁emphasis	-12.5315
▁enigmatical	-12.5315
▁enumerate	-12.5315
▁etiquette	-12.5315
▁frivolous	-12.5315
▁goodfornothing	-12.5315
▁guitar	-12.5315
▁hairdresser	-12.5315
▁hallucination	-12.5315
▁haphazard	-12.5315
▁hurrah	-12.5315
▁impassable	-12.5315
▁imperative	-12.5315
▁impregnable	-12.5315
▁inarticulate	-12.5315
▁incredulity	-12.5315
▁integrity	-12.5315
▁irritable	-12.5315
▁junipertree	-12.5315
▁landlady	-12.5315
▁ludicrous	-12.5315
▁mortified	-12.5315
▁necessities	-12.5315
▁numerical	-12.5315
▁obliging	-12.5315
▁ominous	-12.5315
▁participate	-12.5315
▁participation	-12.5315
▁phonograph	-12.5315
▁porridge	-12.5315
▁pregnant	-12.5315
▁recreation	-12.5315
▁reproduce	-12.5315
▁repugnant	-12.5315
▁resolving	-12.5315
▁resplendent	-12.5315
▁resurrection	-12.5315
▁scrawl	-12.5315
▁semblance	-12.5315
▁silhouette	-12.5315
▁smelt	-12.5315
▁specific	-12.5315
▁sublimity	-12.5315
▁symmetry	-12.5315
▁technical	-12.5315
▁temporarily	-12.5315
▁troyka	-12.5315
▁twain	-12.5315
▁unaccustom	-12.5315
▁unbuttoned	-12.5315
▁undulating	-12.5315
▁unimportant	-12.5315
▁uninhabited	-12.5315
▁unsettled	-12.5315
▁volunteer	-12.5315
▁wizard	-12.5315
poplexy	-12.5315
spasmodic	-12.5315
▁CONVE	-12.5315
▁Leclere	-12.5315
▁Melyukv	-12.5315
▁Mtenka	-12.5315
▁Plutarque	-12.5315
▁Solomon	-12.5315
▁billiard	-12.5315
▁cavalier	-12.5315
▁cavity	-12.5315
J	-14.1347
